<unk>	0
<s>	0
</s>	0
<|hindi|>	0
<|english|>	0
<|kannada|>	0
<|endoftext|>	0
.	-3.33185
,	-3.99721
▁.	-4.34292
▁,	-4.44638
s	-4.80348
▁	-4.82205
-	-4.84565
▁and	-4.84838
▁of	-5.24254
▁the	-5.48436
▁और	-5.52461
।	-5.61718
▁in	-5.6574
▁में	-5.73065
▁(	-5.76398
▁के	-5.81464
▁to	-5.82704
▁The	-5.85843
?	-5.86659
'	-5.91702
)	-5.92228
▁की	-5.95231
ी	-5.96806
▁is	-6.05622
▁को	-6.10161
▁-	-6.10946
:	-6.1373
▁है	-6.14514
▁से	-6.14856
▁a	-6.16792
▁का	-6.2048
▁for	-6.3394
▁of▁the	-6.37421
ा	-6.40518
ing	-6.41802
▁'	-6.43011
▁that	-6.49165
े	-6.50142
▁was	-6.5581
▁ಮತ್ತು	-6.56025
▁एक	-6.58452
ದ	-6.63023
▁पर	-6.66838
▁or	-6.68352
▁यह	-6.71057
▁in▁the	-6.71645
▁by	-6.74943
ed	-6.77489
▁भी	-6.8324
▁on	-6.84703
▁are	-6.85156
▁with	-6.86333
▁it	-6.88254
ು	-6.89089
▁A	-6.89861
▁जो	-6.90339
e	-6.93667
्	-6.93691
▁from	-6.9423
▁ಈ	-6.95776
▁ने	-6.96569
ly	-7.01735
t	-7.02173
▁कि	-7.02432
▁या	-7.05117
▁हैं	-7.05686
▁तथा	-7.08021
▁इस	-7.08594
ಿ	-7.095
▁?	-7.10348
▁has	-7.11716
▁I	-7.12161
ವನ್ನು	-7.12722
▁as	-7.13095
ಯ	-7.1355
ं	-7.13687
▁this	-7.14529
y	-7.14698
▁तो	-7.18514
▁:	-7.18833
ಗಳು	-7.20033
d	-7.20035
ों	-7.24836
ಗಳನ್ನು	-7.26427
▁their	-7.27157
न	-7.27242
▁के▁लिए	-7.28821
B	-7.28885
ಕ್ಕೆ	-7.29039
▁also	-7.29273
▁ही	-7.29449
ಗೆ	-7.30617
▁which	-7.31934
▁ಎಂದು	-7.32788
क	-7.33406
▁In	-7.36311
▁“	-7.36378
▁were	-7.3768
▁ಆದರೆ	-7.3857
ऊ	-7.38932
a	-7.40545
▁at	-7.41486
al	-7.41635
▁था	-7.42974
er	-7.44719
ದಲ್ಲಿ	-7.45111
▁He	-7.45765
▁his	-7.46152
र	-7.46912
ों▁में	-7.48154
▁ಇದು	-7.48693
▁he	-7.48927
▁but	-7.49257
ो	-7.49452
▁This	-7.49789
▁ಅವರು	-7.51113
ण्श्	-7.5113
छ्ष	-7.51155
▁to▁the	-7.51212
ित	-7.51264
ರ	-7.53224
ನ	-7.5345
▁वे	-7.54228
ವು	-7.5507
▁)	-7.55099
▁It	-7.55484
▁नहीं	-7.55615
▁कर	-7.56118
▁had	-7.56216
▁But	-7.57057
कर	-7.57648
▁वह	-7.58046
ों▁को	-7.58365
ಿದ್ದಾರೆ	-7.58758
▁अपने	-7.59523
ಗಳ	-7.60092
▁कुछ	-7.60162
ಯನ್ನು	-7.6018
m	-7.60245
▁and▁the	-7.60313
!	-7.60665
▁ये	-7.61511
▁have	-7.62068
ಲು	-7.62599
▁ಹಾಗೂ	-7.63683
s▁and	-7.64062
ರು	-7.64166
RRB	-7.64224
▁one	-7.6441
s▁of	-7.64411
LR	-7.64424
i	-7.6446
▁you	-7.65261
▁India	-7.65419
ನ್ನು	-7.67298
▁an	-7.67436
▁who	-7.68697
▁S	-7.70581
ों▁के	-7.71802
n	-7.73629
ता	-7.73691
▁किसी	-7.74001
▁लेकिन	-7.74198
▁ಆ	-7.7532
es	-7.76328
▁people	-7.76538
▁more	-7.7657
▁|	-7.76591
▁हो	-7.77199
म	-7.7738
▁कोई	-7.7815
▁on▁the	-7.78494
▁न	-7.79838
▁only	-7.80196
."	-7.80239
re	-7.8048
▁अपनी	-7.80825
▁will	-7.81253
ಿದೆ	-7.81503
▁द्वारा	-7.82822
▁about	-7.83074
▁all	-7.83858
▁उनके	-7.84358
▁for▁the	-7.84537
ल	-7.84639
▁इन	-7.87286
ಾ	-7.87482
▁ಒಂದು	-7.88509
▁its	-7.89074
ना	-7.89279
त	-7.89523
▁ಅವರ	-7.89695
▁”	-7.90133
ಸ್	-7.91587
▁हम	-7.9224
ಿಗೆ	-7.92882
ों▁की	-7.93038
▁तक	-7.93229
▁not	-7.93951
ೆ	-7.94165
▁has▁been	-7.94996
▁जब	-7.95731
▁थे	-7.96213
▁होता▁है	-7.96313
▁उन्हें	-7.96686
ುವ	-7.9724
▁आ	-7.97877
▁C	-7.98341
▁them	-7.98442
▁with▁the	-7.98553
▁ನಾನು	-7.98898
r	-7.9934
▁थी	-7.9967
स	-7.9975
ಕ	-8.00016
▁2	-8.00088
▁"	-8.00157
▁"""	-8.01639
್	-8.01822
S	-8.0218
▁over	-8.02333
ों▁का	-8.02392
s▁are	-8.02533
▁आप	-8.02913
▁they	-8.03014
▁like	-8.03333
▁;	-8.03519
▁के▁साथ	-8.03547
▁So	-8.03887
o	-8.04296
ಯಲ್ಲಿ	-8.04397
▁after	-8.04409
▁ನಾವು	-8.0445
▁from▁the	-8.04911
य	-8.05008
ें	-8.05371
ऋ	-8.05652
▁so	-8.05755
▁B	-8.06329
▁P	-8.06359
▁And	-8.06378
▁व	-8.06641
▁1	-8.06676
(	-8.06717
▁we	-8.07363
▁उसे	-8.08109
▁to▁be	-8.08257
▁by▁the	-8.08357
▁मे	-8.08781
▁can	-8.08877
िक	-8.09386
▁said	-8.09444
in	-8.09567
▁We	-8.09588
▁5	-8.09637
/	-8.10155
▁They	-8.10424
▁him	-8.10843
ನ್	-8.11167
▁‘	-8.11211
▁your	-8.11328
▁उनकी	-8.11485
▁।	-8.11941
▁बहुत	-8.11988
▁It▁is	-8.12108
▁ಅ	-8.12507
ವಾಗಿ	-8.1326
ों▁से	-8.13484
▁3	-8.13514
▁उस	-8.14596
▁मैं	-8.1474
▁two	-8.15827
ನು	-8.16089
▁our	-8.161
▁एवं	-8.16106
▁ನ	-8.16693
▁भारतीय	-8.16964
▁government	-8.17024
▁some	-8.17293
▁be	-8.17303
▁D	-8.17691
▁will▁be	-8.17704
;	-8.17948
▁these	-8.18186
▁उसके	-8.18199
▁10	-8.18459
▁out	-8.19217
▁her	-8.19294
▁being	-8.20437
▁What	-8.20529
▁than	-8.20742
▁अ	-8.21097
▁उन	-8.2135
▁here	-8.2156
▁दो	-8.21603
▁time	-8.21662
’	-8.21777
▁जैसे	-8.21934
ೂ	-8.22146
▁up	-8.22919
▁ನಮ್ಮ	-8.23329
ने	-8.23884
▁उन्होंने	-8.24135
▁when	-8.24174
▁work	-8.24851
▁सभी	-8.24908
▁there	-8.25215
▁any	-8.25474
▁Indian	-8.25602
▁18	-8.26044
▁is▁a	-8.26208
ಗಳಲ್ಲಿ	-8.26281
ಲ್	-8.27026
▁no	-8.27306
▁of▁a	-8.2763
ವ	-8.27667
ದಿಂದ	-8.28177
▁15	-8.28288
▁against	-8.28632
▁at▁the	-8.288
ರ್	-8.29113
ೇ	-8.29366
ಬೇಕು	-8.2941
an	-8.29659
▁भारत	-8.29991
▁me	-8.30216
व	-8.30724
▁अधिक	-8.32303
▁किया	-8.32348
▁ನೀವು	-8.32638
▁in▁a	-8.32951
▁into	-8.33275
▁K	-8.33485
th	-8.34166
▁However	-8.3419
ई	-8.34383
ಗಳಿಗೆ	-8.34431
द	-8.34724
▁के▁रूप▁में	-8.34805
ವಾಗಿದೆ	-8.35004
▁have▁been	-8.35625
ीय	-8.3577
▁अब	-8.36017
▁20	-8.36189
ಿರುವ	-8.37076
ಿಲ್ಲ	-8.37175
ज	-8.37344
▁then	-8.3796
ುತ್ತದೆ	-8.37998
▁नहीं▁है	-8.38056
▁ನಿಮ್ಮ	-8.38278
▁E	-8.38376
▁केवल	-8.38686
▁ಅದು	-8.39196
▁ಯಾವುದೇ	-8.39256
▁इसे	-8.39328
▁कई	-8.39358
ವಾದ	-8.39437
▁R	-8.40422
▁many	-8.40507
प	-8.40578
ि	-8.40616
▁Z	-8.40863
▁my	-8.40899
ट	-8.41002
ए	-8.41177
ब	-8.41695
▁what	-8.41732
ic	-8.41943
ಲಾಗಿದೆ	-8.41975
▁4	-8.42208
▁ऐसा	-8.42229
▁three	-8.4257
ಸ	-8.42655
A	-8.42945
▁F	-8.43019
▁वो	-8.4346
p	-8.44151
ಲ್ಲಿ	-8.45318
▁made	-8.45373
▁क्या	-8.45422
▁6	-8.45608
▁कार्य	-8.45766
]	-8.45939
ಿದ	-8.46355
ಟ್	-8.46438
▁ऐसे	-8.46522
ಲ	-8.4662
ers	-8.47157
ಿದ್ದರು	-8.4716
▁under	-8.47249
▁of▁India	-8.47377
▁M	-8.48348
▁new	-8.48603
▁such	-8.49055
ने▁के▁लिए	-8.4909
▁is▁the	-8.49776
ते▁हैं	-8.49869
I	-8.49932
▁No	-8.50149
or	-8.50284
▁स	-8.50321
▁too	-8.50583
▁that▁the	-8.50613
▁as▁a	-8.50908
ುವುದು	-8.51587
▁काम	-8.51631
▁ಬಿಜೆಪಿ	-8.51854
▁may	-8.51856
▁in▁India	-8.51863
ता▁है	-8.52243
▁between	-8.52301
▁can▁be	-8.52923
▁This▁is	-8.53668
▁just	-8.53992
▁even	-8.54391
▁है▁कि	-8.5472
ों▁पर	-8.54769
▁life	-8.54955
▁होती▁है	-8.55076
▁re	-8.55079
▁before	-8.5557
ಯು	-8.55712
▁man	-8.56134
या	-8.56315
▁इसके	-8.56647
ಿತ್ತು	-8.56684
▁ಅಥವಾ	-8.56987
▁मुझे	-8.57037
▁good	-8.57168
ar	-8.57415
▁उसकी	-8.57583
▁it▁is	-8.57866
en	-8.57944
ವೇ	-8.57982
▁ಕೂಡ	-8.57989
▁should	-8.5804
▁बना	-8.58061
▁water	-8.58123
▁ತಮ್ಮ	-8.58416
▁ತನ್ನ	-8.58597
ग	-8.58721
▁is▁not	-8.58835
▁now	-8.58896
▁कम	-8.5891
▁रूप▁से	-8.58985
▁How	-8.59106
▁Rs	-8.59195
▁अपना	-8.59412
▁Congress	-8.59564
▁12	-8.59694
▁That	-8.59711
▁ವಿ	-8.59782
ಲ್ಲ	-8.59935
▁करते▁हैं	-8.60003
▁T	-8.60115
C	-8.60187
▁सन्	-8.60318
▁God	-8.60358
▁ಇಲ್ಲ	-8.60441
▁where	-8.60458
▁she	-8.60489
▁un	-8.60542
ಯೂ	-8.60683
▁के▁बाद	-8.60701
▁राज्य	-8.60798
▁ನಲ್ಲಿ	-8.60824
▁years	-8.60995
▁For	-8.61146
▁ಸ	-8.6159
▁very	-8.61699
ing▁the	-8.61779
▁other	-8.61913
▁[	-8.62321
ों▁और	-8.62461
ಯೇ	-8.62463
श	-8.62598
ೋ	-8.62606
▁do	-8.6275
▁हुआ	-8.63031
▁होते▁हैं	-8.63225
able	-8.63242
▁would	-8.6342
▁उनका	-8.63445
M	-8.63455
ह	-8.64038
▁लोग	-8.64287
▁Government	-8.64389
▁through	-8.64727
▁state	-8.64823
▁ಕಾಂಗ್ರೆಸ್	-8.64849
▁G	-8.6503
▁four	-8.65184
▁भाग	-8.65262
▁ಭಾರತ	-8.65815
▁पहले	-8.65964
ಲಿ	-8.66069
▁इसका	-8.66171
च	-8.66177
▁ಕ	-8.66411
k	-8.6661
▁16	-8.6698
▁ನಂತರ	-8.67103
ary	-8.6711
▁“”	-8.67185
▁She	-8.67191
▁back	-8.67324
▁To	-8.67749
h	-8.67811
▁समय	-8.68268
▁power	-8.68358
ದೆ	-8.68459
▁ಎಂದರು	-8.68868
▁ಇ	-8.68975
g	-8.68996
▁ಏನು	-8.69036
▁ಹೊಸ	-8.6905
▁first	-8.691
on	-8.69147
ಿದರು	-8.69224
▁called	-8.69243
सी	-8.69654
ion	-8.70002
▁ले	-8.70281
l	-8.70319
▁ಹೇಗೆ	-8.70373
▁which▁is	-8.70494
b	-8.70609
▁अन्य	-8.70661
ण	-8.71091
,▁“	-8.71299
ಮ	-8.71309
▁क्योंकि	-8.71423
▁तब	-8.71554
▁ಅದನ್ನು	-8.716
▁Prime▁Minister	-8.71977
ಂ	-8.72003
c	-8.72047
ಕ್	-8.72173
ಸಿ	-8.72177
▁ನನಗೆ	-8.72186
▁वि	-8.72205
▁BJP	-8.72281
▁प्र	-8.72456
s▁were	-8.7252
ಿದ್ದು	-8.72556
▁should▁be	-8.72765
▁इसमें	-8.728
ಡ್	-8.73142
▁करना	-8.73223
),	-8.73301
▁'▁'	-8.73345
▁8	-8.73745
ಿದ್ದ	-8.74121
▁हर	-8.7427
▁ಅವರಿಗೆ	-8.74302
▁क	-8.74546
▁while	-8.7461
%	-8.74961
ते	-8.75766
G	-8.75929
▁us	-8.76022
▁well	-8.76147
f	-8.76347
से	-8.76356
▁.▁”	-8.76395
ed▁by	-8.76541
▁different	-8.76692
▁ಎಂಬ	-8.76932
▁काफी	-8.7711
▁जीवन	-8.77151
▁उसका	-8.7717
▁with▁a	-8.77401
▁आपको	-8.77467
▁हमें	-8.77564
▁के▁बारे▁में	-8.77994
”	-8.78094
▁7	-8.78182
▁करने▁के▁लिए	-8.78209
|	-8.7822
2	-8.78438
ುತ್ತಾರೆ	-8.78493
▁Hindi	-8.78673
▁14	-8.78839
ಗ	-8.79163
▁N	-8.79372
▁ಆಗ	-8.79402
ओं	-8.79654
▁देश	-8.7968
▁V	-8.8009
▁श्रेणी	-8.80095
▁world	-8.80099
▁how	-8.8014
ड़	-8.8017
▁those	-8.80178
P	-8.80264
▁होगा	-8.81162
ಯಿಂದ	-8.81184
▁still	-8.81189
ಿನ	-8.81277
ती	-8.8132
यदि	-8.81465
▁You	-8.81652
▁म	-8.81805
D	-8.81945
▁ಮಾಡ	-8.82168
▁ಮೇಲೆ	-8.82185
ರಿ	-8.82466
▁ಗೆ	-8.82592
▁दिया	-8.82715
▁ब	-8.8287
▁political	-8.82885
K	-8.83069
ಿತು	-8.83221
▁आदि	-8.83339
ತ	-8.83361
le	-8.83386
▁तीन	-8.83401
▁सरकार	-8.83741
ur	-8.83783
▁हमारे	-8.83809
▁13	-8.83821
""	-8.83914
▁ಎ	-8.84132
▁ಸಹ	-8.84168
▁इसलिए	-8.84275
ವಿ	-8.84402
▁के▁अनुसार	-8.84548
एं	-8.8463
ಬಹುದು	-8.84692
▁अलग	-8.84772
▁के▁कारण	-8.84978
▁ಪೊಲೀಸರು	-8.85121
▁per▁cent	-8.85193
▁did▁not	-8.85264
s▁in	-8.85366
▁30	-8.85426
़	-8.85602
.”	-8.85734
▁ಇದನ್ನು	-8.85925
...	-8.85941
▁जिसमें	-8.85943
u	-8.86104
▁It▁was	-8.86153
▁of▁his	-8.86255
▁W	-8.86377
▁L	-8.86431
ದು	-8.86471
▁दोनों	-8.86533
▁As	-8.86691
▁ವಿರುದ್ಧ	-8.86708
▁वर्ष	-8.8673
▁started	-8.8675
▁ಯಾವ	-8.86989
▁अथवा	-8.87125
्य	-8.87126
▁ऐसी	-8.87259
▁children	-8.87317
▁50	-8.87459
▁language	-8.87535
▁place	-8.87714
▁day	-8.87911
▁of▁this	-8.8798
1	-8.88237
▁another	-8.88804
▁दे	-8.88955
ಿಂದ	-8.88978
▁All	-8.89132
▁if	-8.89223
▁both	-8.89247
▁women	-8.89259
के	-8.89337
▁धर्म	-8.8936
को	-8.89477
▁Its	-8.89572
man	-8.89655
▁करता▁है	-8.89664
ड	-8.89761
▁get	-8.89883
▁ಕೆ	-8.9002
▁he▁said	-8.90068
▁as▁the	-8.90105
▁ಸರ್ಕಾರ	-8.90283
▁युद्ध	-8.90364
▁ಇದೆ	-8.90452
at	-8.90524
▁सामान्य	-8.90789
▁because	-8.91045
▁ಭಾರತದ	-8.91194
▁right	-8.91196
ियां	-8.9121
ಹ	-8.91355
▁सबसे	-8.91472
“”	-8.91763
▁25	-8.91796
▁O	-8.92025
▁17	-8.92303
▁J	-8.92395
▁His	-8.92607
▁help	-8.92685
ya	-8.9295
ती▁है	-8.93016
ುವುದಿಲ್ಲ	-8.93111
ಾಗ	-8.93153
ರೆ	-8.93424
▁&	-8.93505
ve	-8.93552
▁100	-8.93646
▁great	-8.93793
▁p	-8.94434
▁इससे	-8.94691
▁got	-8.94713
वा	-8.94847
▁अनेक	-8.94959
▁really	-8.95148
▁जहां	-8.95257
▁These	-8.95447
▁विशेष	-8.95665
▁ಇದರಿಂದ	-8.95687
▁later	-8.95731
▁उसने	-8.95919
ಡಿ	-8.96183
भाष्	-8.9628
st	-8.96414
▁ಬಿ	-8.96727
s▁of▁the	-8.96821
ir	-8.96947
L	-8.96998
ಳ	-8.97066
ವೂ	-8.9711
▁H	-8.97196
▁On	-8.97242
▁system	-8.97414
▁प	-8.97421
▁ಇಲ್ಲಿ	-8.97489
▁लगभग	-8.97605
▁the▁same	-8.977
▁If	-8.9777
ತ್	-8.97825
▁के▁लिये	-8.97905
▁सं	-8.97997
▁ಎಲ್ಲಾ	-8.98022
▁all▁the	-8.98157
ಮ್	-8.98194
▁during	-8.98436
्स	-8.98568
▁इसकी	-8.98596
▁भारत▁में	-8.98835
▁In▁the	-8.98916
it	-8.99024
▁मिल	-8.99092
ta	-8.99225
▁ಎರಡು	-8.99413
▁जा	-8.99649
▁अगर	-8.99848
ु	-8.99993
el	-9.00207
▁खेल	-9.00227
▁विश्व	-9.0029
▁11	-9.00462
▁however	-9.006
▁नाम	-9.00729
▁could	-9.00838
▁प्रति	-9.00853
▁बड़ी	-9.0088
▁ಅವರನ್ನು	-9.00914
la	-9.01076
▁9	-9.01116
▁When	-9.01159
▁He▁was	-9.0126
में	-9.01471
▁चार	-9.01722
▁every	-9.01768
▁down	-9.01824
▁ಸಿ	-9.01885
▁ಬಗ್ಗೆ	-9.01891
की	-9.01953
▁country	-9.01993
▁किंतु	-9.02154
▁प्रमुख	-9.02315
▁ಈ▁ಬಗ್ಗೆ	-9.02335
▁family	-9.02351
▁and▁a	-9.02424
▁मैंने	-9.02613
ियों	-9.02699
▁high	-9.0272
se	-9.02725
ಿವೆ	-9.02869
▁जिसे	-9.02877
ಡ	-9.03496
N	-9.03653
▁विचार	-9.0366
▁crore	-9.03828
▁love	-9.03897
▁never	-9.04002
▁नही	-9.04309
ख	-9.04358
▁things	-9.04369
▁ಕೆಲವು	-9.04659
▁did	-9.04728
ಪ್	-9.04737
▁ಮಾತ್ರ	-9.04859
▁सी	-9.05012
ಟಿ	-9.05036
▁year	-9.05098
R	-9.05117
▁ए	-9.05441
to	-9.05449
▁again	-9.05454
ों▁ने	-9.05461
ने▁वाले	-9.05602
▁war	-9.05701
▁case	-9.05821
रा	-9.05827
na	-9.05914
▁ಹ	-9.06031
▁money	-9.06041
▁Pakistan	-9.06045
ity	-9.06084
▁ಮೊದಲ	-9.06244
▁का▁एक	-9.06389
▁law	-9.06507
ने▁का	-9.06589
est	-9.06771
▁राष्ट्रीय	-9.06823
▁always	-9.06858
▁action	-9.06888
▁de	-9.06911
▁ಹೆಚ್ಚು	-9.07053
▁President	-9.07129
ನಿ	-9.07159
▁left	-9.07232
▁प्रतिशत	-9.07445
▁way	-9.07551
ness	-9.07578
िया	-9.07608
▁go	-9.07701
▁says	-9.07703
▁सदस्य	-9.07711
ः	-9.07735
ುತ್ತಿದೆ	-9.07797
▁""	-9.0789
ಾದ	-9.08393
▁near	-9.08424
▁ಎಲ್ಲ	-9.08568
▁men	-9.08707
▁संसद	-9.08723
▁ಇನ್ನೂ	-9.08731
T	-9.08806
▁without	-9.08829
ation	-9.08874
U	-9.08971
ला	-9.09026
▁ಅದರ	-9.09138
▁most	-9.09257
अ	-9.09342
▁वाले	-9.09402
▁may▁be	-9.09463
▁यहां	-9.09546
▁long	-9.09554
ನಾ	-9.09587
▁for▁a	-9.09786
▁प्रयोग	-9.09838
▁he▁was	-9.10091
▁it▁was	-9.10211
ುತ್ತಿದ್ದಾರೆ	-9.10256
िंग	-9.10389
री	-9.10524
▁important	-9.10548
▁Now	-9.10614
▁Ram	-9.1064
▁in▁this	-9.10659
▁Some	-9.10746
▁One	-9.10795
▁make	-9.1087
us	-9.10883
▁use	-9.10897
▁days	-9.10908
▁district	-9.1112
ತೆ	-9.11153
▁ಬ	-9.11163
▁है▁और	-9.11349
s▁the	-9.11479
▁ಎಸ್	-9.11485
▁यहाँ	-9.11688
ಪ	-9.11706
▁19	-9.11714
ों▁के▁लिए	-9.11922
▁Singh	-9.12178
il	-9.12258
▁उद्योग	-9.12444
▁दिन	-9.12477
▁जिस	-9.12527
▁क्षेत्र	-9.12541
फ	-9.12549
▁मंदिर	-9.12618
▁development	-9.1268
ive	-9.12682
is	-9.12715
▁ಡಿ	-9.12861
▁Delhi	-9.12931
▁ಜನರು	-9.12953
▁के▁बीच	-9.13025
ೀ	-9.13183
▁home	-9.13282
▁age	-9.13406
▁the▁first	-9.13411
ನೆ	-9.13597
▁शब्द	-9.136
▁information	-9.13647
ते▁हुए	-9.13655
▁much	-9.13669
▁में▁एक	-9.13787
▁जल	-9.13797
ri	-9.13807
▁together	-9.13848
▁during▁the	-9.14031
▁रहे▁हैं	-9.14044
▁करने	-9.14128
am	-9.14231
▁ನನ್ನ	-9.14248
▁ಉತ್ತಮ	-9.14255
▁Re	-9.14296
▁State	-9.14342
▁There▁are	-9.14504
▁कहते▁हैं	-9.14615
▁today	-9.14807
▁है▁जो	-9.14909
ಿತ	-9.14946
▁जो▁कि	-9.14952
▁and▁other	-9.15038
▁ಅವನು	-9.15156
▁ರೂ	-9.15272
▁change	-9.15458
सा	-9.15496
▁ಮೂಲಕ	-9.15594
का	-9.15721
▁आज	-9.15798
ad	-9.15839
▁under▁the	-9.15842
nt	-9.15998
ಕೆ	-9.16403
▁around	-9.16437
w	-9.16469
▁रहे	-9.16587
F	-9.16611
ous	-9.16612
▁special	-9.16631
▁problems	-9.16692
▁ಅವನ	-9.16762
▁राज	-9.16819
ಲಿದೆ	-9.16825
▁school	-9.16867
▁party	-9.16915
and	-9.16982
ment	-9.17018
▁m	-9.17021
▁food	-9.17044
▁human	-9.17049
ist	-9.17075
▁40	-9.17109
▁बड़े	-9.17186
▁support	-9.17201
▁ग	-9.17319
▁राम	-9.17326
ತ್ತ	-9.17359
▁the▁government	-9.17395
▁जबकि	-9.17621
▁कभी	-9.17662
▁महिला	-9.17844
▁keep	-9.17854
▁lakh	-9.17855
▁health	-9.17881
▁बात	-9.17953
▁I▁am	-9.18001
▁various	-9.18052
ha	-9.18066
▁ಹೇಳ	-9.18137
▁लगा	-9.1825
▁भारत▁के	-9.1844
▁There	-9.18523
▁position	-9.18554
ज़	-9.18598
▁must	-9.18639
ಣ	-9.18649
▁each	-9.18904
ma	-9.18986
▁दूसरे	-9.19111
▁ನಮಗೆ	-9.19499
E	-9.19553
▁कैसे	-9.19587
▁हुई	-9.19757
▁After	-9.19866
▁बाहर	-9.1988
▁etc	-9.19909
▁does▁not	-9.19985
▁take	-9.20083
▁land	-9.20118
▁An	-9.20137
▁हिन्दी	-9.2014
▁Constitution	-9.20152
▁form	-9.20168
▁Mumbai	-9.20199
▁ರ	-9.20327
ಲಿಲ್ಲ	-9.20337
the	-9.20362
▁say	-9.20405
▁was▁not	-9.20678
▁अकबर	-9.20803
▁ಅಲ್ಲ	-9.20919
▁would▁be	-9.20934
▁Hindu	-9.20944
▁service	-9.20944
ै	-9.21006
▁into▁the	-9.2128
up	-9.21341
▁ಪಿ	-9.21419
▁ल	-9.21435
▁ಅನ್ನು	-9.21479
ುವಂತೆ	-9.21484
▁Jehovah	-9.21512
▁social	-9.2157
▁जी	-9.21719
▁फिर	-9.21806
ia	-9.21916
▁Narendra▁Modi	-9.21933
▁Police	-9.21937
▁several	-9.21939
▁Then	-9.21986
um	-9.21999
▁free	-9.22055
▁च	-9.22124
V	-9.22172
ವೆ	-9.22184
▁जिससे	-9.22274
▁court	-9.22346
▁रूप	-9.22378
▁countries	-9.22419
▁ಅನೇಕ	-9.22677
▁need	-9.22701
▁ಕೆಲಸ	-9.22724
▁घर	-9.22729
मा	-9.22755
▁five	-9.22834
▁बल्कि	-9.22889
▁रहा▁है	-9.22889
▁English	-9.22891
▁ಆರ್	-9.22926
▁name	-9.22934
▁police	-9.2321
▁उ	-9.23258
▁himself	-9.2331
ಗಳಿಂದ	-9.23333
▁ಜ	-9.23412
▁became	-9.23459
▁संघ	-9.23566
▁.▁'▁'	-9.23569
▁small	-9.23616
▁ರಾಜ್ಯ	-9.23671
▁better	-9.23752
▁पा	-9.23766
▁ಹೆಚ್ಚಿನ	-9.2391
▁भर	-9.23938
▁often	-9.24039
▁ज	-9.24124
▁national	-9.242
ने▁की	-9.24313
▁सकते▁हैं	-9.24334
▁हुए	-9.24375
ू	-9.24413
▁area	-9.24445
▁public	-9.24521
▁there▁are	-9.24549
▁city	-9.24567
▁की▁ओर	-9.2465
▁off	-9.24806
▁स्थान	-9.2481
▁अनु	-9.24933
▁dis	-9.24952
▁महत्वपूर्ण	-9.24952
▁फिल्म	-9.2508
▁matter	-9.2516
."""	-9.25165
▁राष्ट्रपति	-9.25197
▁body	-9.25219
▁ಇದಕ್ಕೆ	-9.2522
थ	-9.2533
li	-9.25343
▁b	-9.25455
▁ಕೇಂದ್ರ	-9.25525
ओ	-9.25592
▁period	-9.25617
▁लग	-9.25716
,""	-9.25824
▁president	-9.25845
▁समझ	-9.259
▁about▁the	-9.2592
▁head	-9.25997
ವರು	-9.26004
ies	-9.26057
▁ಮ	-9.26083
नी	-9.26152
▁हमारी	-9.26153
▁परिवर्तन	-9.26276
▁used	-9.26356
इ	-9.2647
ನೇ	-9.26528
▁further	-9.26599
▁के▁पास	-9.26692
▁Be	-9.26709
▁t	-9.26733
▁including	-9.26782
▁put	-9.26788
▁Many	-9.26853
पूर्ण	-9.27035
▁विकास	-9.271
▁ಭಾರತೀಯ	-9.27139
ಳು	-9.27209
▁ला	-9.27243
▁been	-9.27266
ant	-9.27319
H	-9.27418
s▁a	-9.27445
ra	-9.27467
▁U	-9.276
▁Act	-9.27603
▁religion	-9.27726
▁I▁have	-9.27822
▁प्रभाव	-9.27846
▁कारण	-9.27853
▁विभिन्न	-9.27904
▁team	-9.28108
▁came	-9.2819
▁इसी	-9.28244
W	-9.28256
ले	-9.28271
▁ख	-9.28309
▁I▁was	-9.28405
▁मुख्य	-9.28517
▁सु	-9.28564
▁नि	-9.28592
▁द	-9.28599
▁e	-9.28716
▁किया▁जाता▁है	-9.2877
▁had▁been	-9.28839
▁education	-9.28882
▁person	-9.28907
▁cannot	-9.28919
▁स्वयं	-9.29011
▁व्यक्ति	-9.29047
ರೂ	-9.29089
▁due▁to	-9.29136
ಟ	-9.29307
▁found	-9.29415
▁film	-9.29424
▁There▁is▁no	-9.29443
▁पुरुष	-9.29668
▁ಚಿತ್ರ	-9.29988
▁in▁his	-9.30095
▁away	-9.30116
▁ಕಾರಣ	-9.30269
ll	-9.30343
▁भाषा	-9.30495
▁दी	-9.30565
▁21	-9.30628
▁करके	-9.30764
▁बन	-9.30788
The	-9.30789
ism	-9.30836
ti	-9.30893
s▁to	-9.3093
▁number▁of	-9.30937
▁a▁new	-9.30986
▁ಬಳಿಕ	-9.31239
▁पी	-9.31302
ाई	-9.31432
▁students	-9.31642
3	-9.31703
▁संस्कृत	-9.31748
▁g	-9.31881
ने▁में	-9.31922
▁ಸು	-9.31927
▁ಮುಖ್ಯ	-9.31989
जी	-9.32019
▁side	-9.32066
▁की▁तरह	-9.3213
▁पूर्व	-9.32209
▁गया	-9.32362
ುತ್ತವೆ	-9.32372
▁मेरे	-9.32511
▁जिसका	-9.32587
गत	-9.3289
▁post	-9.3295
▁took	-9.32965
ch	-9.32989
▁light	-9.33001
▁part	-9.33007
▁times	-9.33025
▁after▁the	-9.33027
▁order	-9.33063
▁,▁”	-9.33142
▁प्रत्येक	-9.3319
▁उत्पादन	-9.33374
▁d	-9.33415
▁सकता▁है	-9.33435
▁24	-9.33599
▁Chief▁Minister	-9.33631
▁to▁a	-9.33684
▁ಪ್ರಮುಖ	-9.33778
▁set	-9.33819
‍	-9.33854
▁the▁world	-9.33934
▁200	-9.33969
▁religious	-9.3426
▁ಅಧ್ಯಕ್ಷ	-9.34294
▁ಮಾಡಿ	-9.34298
▁Dr	-9.34328
▁ದೊಡ್ಡ	-9.34435
▁वहां	-9.34501
▁यही	-9.34509
ದ್ದು	-9.34513
▁according▁to	-9.34613
▁something	-9.34633
▁श	-9.34645
▁present	-9.3498
▁करें	-9.35111
ುತ್ತೇವೆ	-9.35128
ಾಗಿ	-9.35322
▁ज्यादा	-9.35329
ರಿಗೆ	-9.35359
ंग	-9.35374
▁ಜನರ	-9.35379
▁members	-9.354
ಬ	-9.35537
▁शायद	-9.35546
▁Supreme▁Court	-9.35718
▁are▁not	-9.35821
Laughter	-9.36035
▁making	-9.36154
ಲಾ	-9.3619
▁true	-9.3622
▁shall	-9.36248
ce	-9.36293
▁itself	-9.36351
▁आतंकवाद	-9.36387
▁million	-9.36523
pur	-9.36791
▁मूल	-9.36792
as	-9.36924
▁thing	-9.37004
ಕ್ಕಾಗಿ	-9.37033
▁ತಿಳಿಸಿದ್ದಾರೆ	-9.37039
ಯಾ	-9.37081
▁house	-9.37178
▁’	-9.37245
▁रख	-9.37364
▁उपयोग	-9.37368
▁वर्ग	-9.37374
▁ಉತ್ತರ	-9.37443
ಿರಿ	-9.37489
ಯಾಗಿದೆ	-9.37513
▁old	-9.37525
▁history	-9.37662
▁मान	-9.37673
▁ಆರೋಗ್ಯ	-9.37751
▁परंतु	-9.37847
▁हमने	-9.37869
ak	-9.37876
▁on▁a	-9.37914
ುತ್ತೇನೆ	-9.37927
▁international	-9.37948
ne	-9.37982
▁मानव	-9.38227
▁जाता▁है	-9.38286
▁taken	-9.38305
▁Here	-9.3836
▁Kumar	-9.38425
▁is▁also	-9.38453
▁What▁is	-9.38467
▁सामाजिक	-9.3861
▁ಮೋದಿ	-9.38827
▁though	-9.38844
ನ್ನ	-9.38861
▁देख	-9.38965
▁local	-9.38989
▁population	-9.391
▁yet	-9.39175
▁c	-9.39205
▁states	-9.39248
▁ದೇವರ	-9.3942
ೊ	-9.39575
▁के▁द्वारा	-9.39594
▁ಪ	-9.3961
▁ओ	-9.39638
▁do▁not	-9.39663
▁योजना	-9.39674
▁राजा	-9.39676
▁के▁दौरान	-9.39812
▁air	-9.3983
▁सेवा	-9.4019
▁Akbar	-9.40228
▁शिक्षा	-9.40313
ಜ	-9.40481
▁actually	-9.40507
▁आधुनिक	-9.40768
▁i	-9.40786
▁done	-9.40786
▁to▁make	-9.40811
ತಿ	-9.40824
▁over▁the	-9.40896
▁ದಿನ	-9.40927
▁story	-9.40967
वर	-9.41191
Z	-9.41232
▁फ	-9.41264
▁/	-9.41337
ಿಸ	-9.41368
▁since	-9.41412
▁कह	-9.41459
ಗಾಗಿ	-9.41459
▁arrested	-9.41466
▁कर▁सकते▁हैं	-9.41561
▁either	-9.4163
▁बदल	-9.4164
ate	-9.41647
▁अधिकार	-9.41658
ೊಂದಿಗೆ	-9.417
ry	-9.41758
▁प्रस्ताव	-9.41758
▁!	-9.41867
▁out▁of	-9.42101
20	-9.42101
x	-9.42106
▁मेरी	-9.42152
▁ಐ	-9.42222
ರಾ	-9.4223
▁among	-9.42268
▁र	-9.42274
▁was▁a	-9.42536
▁ह	-9.42595
▁big	-9.42624
▁छोटे	-9.42645
▁face	-9.4267
ul	-9.42672
▁ಕಾಲ	-9.42722
▁Jesus	-9.42817
▁इस▁प्रकार	-9.42966
▁ಕೊಡ	-9.43206
▁which▁was	-9.4324
va	-9.43468
▁न्यायालय	-9.43505
▁hand	-9.43572
▁पूरा	-9.43606
कार	-9.43634
▁ಹಲವು	-9.43731
▁के▁प्रति	-9.43738
▁against▁the	-9.43787
▁जिसके	-9.43787
▁जन	-9.43818
▁शक्ति	-9.43931
▁ಅಲ್ಲಿ	-9.43964
age	-9.43992
▁मगर	-9.44207
▁ದೇಶದ	-9.44239
▁co	-9.44296
▁ನಿಮಗೆ	-9.44343
▁ಮುಖ್ಯಮಂತ್ರಿ	-9.44356
ed▁the	-9.44375
4	-9.44491
▁प्राप्त	-9.44636
▁business	-9.44654
आ	-9.44663
▁wrong	-9.44691
ance	-9.44695
▁video	-9.44749
▁किया▁गया	-9.44789
▁possible	-9.44799
ಅ	-9.44803
▁ಕಾರ್ಯ	-9.44809
दी	-9.44887
▁उप	-9.44941
ed▁to	-9.44979
▁earlier	-9.45131
▁सही	-9.452
▁ಇನ್ನು	-9.45202
▁culture	-9.45203
▁ಸಿನಿಮಾ	-9.45348
ँ	-9.45382
▁hard	-9.45495
▁start	-9.45548
▁river	-9.45566
▁ವಿವಿಧ	-9.45738
▁दूर	-9.45747
▁ಇದರ	-9.45793
▁common	-9.45835
▁ಅದಕ್ಕೆ	-9.45886
ಬ್	-9.46003
▁to▁do	-9.46037
ಯಾಗಿ	-9.46108
▁People	-9.46171
▁They▁are	-9.46196
पर	-9.46225
▁to▁get	-9.46233
▁ದ	-9.46427
et	-9.46478
▁group	-9.46498
▁former	-9.46521
▁that▁he	-9.46531
▁इ	-9.46618
ी▁और	-9.46676
▁leader	-9.46758
▁At	-9.46896
▁संविधान	-9.46975
▁सब	-9.46982
▁getting	-9.47062
▁Ka	-9.47138
▁ಜೊತೆ	-9.47158
▁उत्तर	-9.47224
▁शहर	-9.47327
less	-9.47342
▁having	-9.47407
▁वास्तव▁में	-9.4741
▁अगर▁आप	-9.47459
▁जान	-9.47553
▁ईश्वर	-9.47589
▁Modi	-9.47608
▁ಮಂದಿ	-9.47651
▁ಕಾ	-9.47731
▁that▁is	-9.47794
▁industry	-9.47821
▁अर्थ	-9.47859
▁held	-9.47864
ी▁है	-9.47897
▁साल	-9.47905
▁words	-9.48139
▁कांग्रेस	-9.48152
▁मनुष्य	-9.48228
▁मत	-9.4823
▁already	-9.48454
▁movement	-9.48495
▁राय	-9.48499
un	-9.48522
▁main	-9.48582
▁ಶೇ	-9.48695
▁why	-9.48788
▁cases	-9.4882
▁car	-9.4885
▁धार्मिक	-9.48851
▁Parliament	-9.48899
▁ಕೈ	-9.48903
▁कानून	-9.48909
▁उससे	-9.48922
ಗಳು▁ಮತ್ತು	-9.48939
▁से▁अधिक	-9.4901
j	-9.49026
▁बे	-9.49041
▁व्यवस्था	-9.49219
ने▁वाली	-9.49222
▁process	-9.49293
▁temple	-9.49361
ರಲ್ಲಿ	-9.49415
▁book	-9.4946
▁problem	-9.49483
▁जानकारी	-9.4949
▁Muslim	-9.49501
▁music	-9.4952
▁began	-9.4957
▁report	-9.49597
▁death	-9.49621
▁ನಿನ್ನ	-9.49671
▁ऊपर	-9.49776
▁of▁these	-9.49856
▁ಒಬ್ಬ	-9.49875
▁Man	-9.49885
▁पूरी	-9.4992
▁s	-9.5008
▁fire	-9.50097
▁सा	-9.50111
ಮಾ	-9.50192
▁But▁the	-9.50305
ॉ	-9.50389
▁meeting	-9.50391
▁चल	-9.50434
▁सहायता	-9.50448
ದ್ದ	-9.50471
▁asked	-9.50545
▁समाज	-9.50573
▁question	-9.50701
▁experience	-9.50735
▁नियम	-9.50742
▁leaders	-9.50748
▁they▁are	-9.51076
ಕ್ಕೂ	-9.51103
▁हो▁सकता▁है	-9.51208
▁60	-9.51215
▁the▁Congress	-9.51259
▁स्थानीय	-9.51308
▁must▁be	-9.51329
ನಲ್ಲಿ	-9.5137
▁means	-9.51381
▁ಸಾಕಷ್ಟು	-9.51389
▁come	-9.51417
▁आर्थिक	-9.51433
▁there▁is	-9.51488
▁might	-9.51503
▁ಹೇಳಿದ್ದಾರೆ	-9.51514
▁ಹಣ	-9.51535
ಿಗೂ	-9.5154
▁ಸುಮಾರು	-9.51606
▁less	-9.51612
▁करने▁की	-9.51704
▁find	-9.51715
ಲೆ	-9.51758
ah	-9.5176
▁ಕುರಿತು	-9.51815
▁ಪ್ರತಿ	-9.51836
vi	-9.51837
▁fear	-9.51951
▁ಪ್ರ	-9.51983
▁per	-9.52023
▁ಶ್ರೀ	-9.52055
ये	-9.52214
▁of▁their	-9.52251
ली	-9.52265
▁cricket	-9.52267
▁ever	-9.52352
ध	-9.52366
▁runs	-9.52423
▁ಮೂರು	-9.52433
▁ರಾಜಕೀಯ	-9.52536
Y	-9.5257
▁रह	-9.52602
▁services	-9.52606
▁We▁are	-9.5272
▁within	-9.52745
0	-9.5279
▁ई	-9.52829
▁needs	-9.52894
7	-9.52982
ओं▁में	-9.52998
▁rule	-9.53016
▁अनुभव	-9.53091
ಪ್ಪ	-9.53138
▁ಪ್ರಧಾನಿ	-9.53161
▁इस▁तरह	-9.53168
▁National	-9.53169
▁Why	-9.53193
▁community	-9.53222
ty	-9.53254
▁विधि	-9.53306
ियों▁को	-9.53363
▁policy	-9.53598
▁play	-9.53609
▁By	-9.53621
▁ಆದ್ದರಿಂದ	-9.53624
te	-9.53662
▁become	-9.53721
▁होगी	-9.53814
▁बच्चे	-9.53896
▁control	-9.53925
▁word	-9.53931
▁ಮು	-9.53933
▁तैयार	-9.5403
▁इतन	-9.54121
▁ಹೀಗೆ	-9.54248
▁last	-9.5429
▁हे	-9.54301
ಬಿ	-9.54307
▁According	-9.54309
▁पे	-9.54416
▁ಯಾರು	-9.54467
▁Karnataka	-9.54477
▁in▁which	-9.54486
▁between▁the	-9.54492
▁of▁our	-9.54555
▁बस	-9.54625
▁point	-9.54645
▁ಅತ್ಯಂತ	-9.54663
▁23	-9.54697
▁knowledge	-9.54742
▁जनता	-9.54756
▁सदन	-9.54762
▁समूह	-9.54917
ಪಿ	-9.54934
▁self	-9.54944
▁ವಿಷಯ	-9.54973
▁राजनैतिक	-9.54989
ति	-9.55032
▁राष्ट्र	-9.55205
▁given	-9.55272
▁was▁the	-9.55272
▁literature	-9.5534
▁लोगों▁को	-9.55362
ों▁द्वारा	-9.55389
▁जन्म	-9.554
▁little	-9.5543
▁ಜಿ	-9.55499
▁ಸಮಯ	-9.55539
▁26	-9.55577
वि	-9.55655
▁ತುಂಬಾ	-9.5569
▁immediately	-9.55742
▁Y	-9.55777
▁pre	-9.55783
▁और▁यह	-9.55783
ಇ	-9.55793
ಗಳಿವೆ	-9.55823
▁निर्माण	-9.55884
▁रंग	-9.55908
▁quite	-9.55931
▁22	-9.55957
गा	-9.56096
ಜಿ	-9.56275
▁De	-9.56348
ೈ	-9.5635
▁ना	-9.56384
ಕರ	-9.56384
▁We▁have	-9.56393
▁level	-9.56477
ा▁है	-9.56515
▁वेद	-9.56544
▁पानी	-9.56646
▁built	-9.56751
▁in▁the▁world	-9.56778
sh	-9.56791
?”	-9.56798
▁परिणाम	-9.56805
▁बता	-9.56855
▁न्याय	-9.56918
▁खुद	-9.56921
▁open	-9.56942
ುತ್ತಿರುವ	-9.57024
▁पूरे	-9.57088
▁Do	-9.57132
▁शुरू	-9.57203
▁themselves	-9.5721
▁named	-9.57266
ौ	-9.57293
ಷ	-9.57385
▁as▁well▁as	-9.57427
▁Go	-9.57469
6	-9.57471
▁almost	-9.5751
▁ಉ	-9.57514
▁end	-9.5752
O	-9.57533
▁provided	-9.57581
▁brought	-9.5766
▁अधिकांश	-9.57687
▁situation	-9.57704
ful	-9.57728
▁हमेशा	-9.57849
▁see	-9.57857
▁ಗ	-9.57907
▁ಬರ	-9.57938
▁full	-9.57974
▁ठीक	-9.58168
▁वहाँ	-9.58301
▁आगे	-9.58388
▁early	-9.58416
▁include	-9.58426
▁ರಾಷ್ಟ್ರೀಯ	-9.58427
ach	-9.5843
▁soon	-9.58446
▁society	-9.5849
▁बढ़	-9.58644
▁China	-9.58644
▁show	-9.58851
▁हो▁गया	-9.58856
▁यह▁एक	-9.58875
ish	-9.58877
▁won	-9.58893
▁ಸ್ಥಳ	-9.5893
▁There▁is	-9.58937
▁ಅಗತ್ಯ	-9.58945
out	-9.58991
▁short	-9.59003
▁working	-9.59061
▁क़्योंकि	-9.59062
▁village	-9.59217
ಿಕ	-9.59231
▁With	-9.59262
ana	-9.593
▁आंदोलन	-9.59347
▁बाद▁में	-9.59363
▁जगह	-9.59366
▁मुंबई	-9.59428
▁था▁कि	-9.59456
▁woman	-9.59626
▁Not	-9.59781
▁general	-9.59822
▁उद्देश्य	-9.59827
▁व्यापार	-9.59828
▁building	-9.59885
ಂತೆ	-9.59904
▁we▁have	-9.59912
▁परिवार	-9.59934
▁production	-9.60004
▁Al	-9.60009
▁शासन	-9.60009
▁difficult	-9.6007
▁ಹೋಗ	-9.60074
▁modern	-9.601
ುತ್ತಾನೆ	-9.6015
▁हिंदुस्तान	-9.60254
ಿದ್ದೇವೆ	-9.60285
ने▁के	-9.60505
▁books	-9.60556
गी	-9.60676
▁इन्हें	-9.60692
▁real	-9.60708
▁type	-9.60721
▁role	-9.60728
▁certain	-9.60731
▁कि▁वह	-9.60746
▁lost	-9.60747
▁बड़ा	-9.60748
▁ಮಾಹಿತಿ	-9.60749
▁के▁एक	-9.60763
ಲಾಯಿತು	-9.60857
▁played	-9.60916
ಸು	-9.60925
▁दूसरी	-9.60957
ಂದು	-9.60963
▁अंतिम	-9.61
▁ಏಕೆ	-9.61059
ine	-9.61236
▁others	-9.61541
▁जिन्हें	-9.61669
▁लाख	-9.6172
▁read	-9.61779
▁District	-9.61783
-19	-9.6179
भ	-9.6182
▁ಇರ	-9.61907
▁questions	-9.61919
▁संस्कृति	-9.61971
▁elections	-9.61981
▁child	-9.61988
▁में▁भी	-9.62017
▁ताकि	-9.62044
▁महा	-9.62071
▁भ	-9.62075
ವಿದೆ	-9.62078
▁निर्णय	-9.6215
▁बिना	-9.6222
▁far	-9.6222
▁किया▁गया▁है	-9.62245
▁करीब	-9.62252
▁श्री	-9.62344
▁developed	-9.62554
▁28	-9.62633
▁लिया	-9.62644
▁दिल्ली	-9.62683
▁to▁take	-9.6275
▁रोग	-9.62811
▁ಕಡಿಮೆ	-9.62964
▁विश्वास	-9.62975
▁क्यों	-9.63006
▁उस▁समय	-9.63142
▁जहाँ	-9.63176
▁उसमें	-9.63192
टी	-9.63196
▁progress	-9.63202
▁थीं	-9.63254
▁इतिहास	-9.63305
▁ಬೇರೆ	-9.63308
▁उसी	-9.63351
३	-9.63361
▁written	-9.63382
ಮಿ	-9.63428
ka	-9.63538
▁अनुच्छेद	-9.63548
▁therefore	-9.63557
▁run	-9.63595
▁capital	-9.63631
▁ಟಿ	-9.63653
▁ओर	-9.63703
यां	-9.63759
▁क्रिकेट	-9.63834
ದ್	-9.63894
▁सिर्फ	-9.63946
▁बेहतर	-9.63992
▁large	-9.6402
▁सुरक्षा	-9.64086
▁six	-9.64097
▁call	-9.64109
▁World	-9.64173
▁ವಿಶೇಷ	-9.64233
▁सोच	-9.64245
▁Even	-9.64299
▁The▁film	-9.64393
ೀಯ	-9.644
▁अच्छा	-9.64428
J	-9.64543
ಿದ್ದೇನೆ	-9.64655
इस	-9.64656
▁reason	-9.64721
वी	-9.64809
▁a▁lot▁of	-9.64826
▁सारे	-9.64883
▁taking	-9.6492
▁politics	-9.64936
▁ನಡೆದ	-9.64942
▁ಎಂದು▁ಹೇಳಿದರು	-9.64948
▁बा	-9.64983
▁line	-9.65059
▁when▁the	-9.65122
▁पिछले	-9.65226
ठ	-9.65238
▁non	-9.65304
रे	-9.654
▁Who	-9.65438
▁ಶ	-9.65506
▁चला	-9.65506
▁attack	-9.65521
led	-9.65526
▁everything	-9.65622
▁ಆಗಿದೆ	-9.65666
de	-9.65707
▁ज्ञान	-9.6579
▁natural	-9.65797
▁प्राचीन	-9.65831
▁चित्र	-9.65939
▁इतना	-9.66072
▁plan	-9.66131
▁class	-9.66159
▁Minister	-9.66199
▁ಇದರಲ್ಲಿ	-9.66214
▁नीति	-9.66236
▁ನಿ	-9.66294
▁towards	-9.66322
▁entire	-9.66354
▁त	-9.66433
▁doing	-9.66438
▁n	-9.66521
ಲಾಗಿತ್ತು	-9.66532
▁ದೇಶ	-9.66604
▁next	-9.66646
ನ್ನೂ	-9.66673
▁दुनिया	-9.66692
▁ಜೊತೆಗೆ	-9.66696
▁स्थित	-9.66753
▁ಬಹಳ	-9.66793
▁गंगा	-9.66804
▁Is	-9.66848
ಿರಲಿಲ್ಲ	-9.66903
▁ಹೀಗಾಗಿ	-9.66936
▁of▁all	-9.66973
▁शरीर	-9.66985
ro	-9.67
▁Sanskrit	-9.67011
ವಲ್ಲ	-9.6708
४	-9.67085
▁मुसलमान	-9.67105
5	-9.67118
▁ನೀರು	-9.67145
▁आम	-9.67163
▁blood	-9.67166
▁ಡಾ	-9.67183
▁areas	-9.67208
▁करती▁है	-9.67251
▁give	-9.67254
▁anything	-9.67295
▁ಕೇವಲ	-9.67305
▁कला	-9.67363
▁New	-9.6737
▁University	-9.67398
▁match	-9.67399
▁ಮಕ್ಕಳ	-9.67479
▁major	-9.67485
s▁that	-9.67504
▁ನಡುವೆ	-9.6753
▁changes	-9.67595
▁रही▁है	-9.67612
▁ಆಹಾರ	-9.6765
▁economic	-9.67688
▁केंद्र	-9.67767
▁technology	-9.67771
▁बल्लेबाज	-9.67798
▁जैसा	-9.67823
▁ತ	-9.67827
ी▁में	-9.67846
▁पाकिस्तान	-9.67847
▁part▁of	-9.6789
▁केन्द्र	-9.67933
▁the▁country	-9.67965
▁सो	-9.68065
▁कोई▁भी	-9.68066
▁could▁be	-9.68092
▁ಇತರ	-9.68102
▁छ	-9.68124
▁election	-9.68175
▁सिंह	-9.68208
ವಾ	-9.68211
▁500	-9.68236
▁works	-9.68256
▁freedom	-9.68285
▁they▁were	-9.68313
ೊಂದು	-9.68342
▁प्रथम	-9.68437
▁upon	-9.68461
▁उठा	-9.68491
▁किया▁है	-9.68508
▁this▁is	-9.6853
▁look	-9.68579
ಲಿದ್ದಾರೆ	-9.68662
▁Sa	-9.68771
▁ನೋಡ	-9.6885
▁बार	-9.6887
▁पद	-9.68885
▁at▁a	-9.68893
▁हालांकि	-9.68906
▁पूर्ण	-9.6891
▁जिनमें	-9.69014
▁ಎಂ	-9.69155
▁वर्तमान	-9.69163
▁मै	-9.69216
▁son	-9.69276
▁प्रश्न	-9.69284
▁कुल	-9.69345
▁decision	-9.69402
ರಾದ	-9.69419
▁condition	-9.69426
ian	-9.69459
▁की▁एक	-9.69481
▁in▁this▁regard	-9.69537
▁thought	-9.69589
▁kind▁of	-9.69709
▁mind	-9.69733
▁available	-9.69773
▁Raj	-9.69793
▁नेपाल	-9.69809
,000	-9.69815
वे	-9.69841
▁नीचे	-9.69922
s▁for	-9.69961
▁simple	-9.70049
▁Because	-9.70053
▁ब्रिटिश	-9.70055
ಂತ	-9.70077
▁के▁समय	-9.70095
हृ	-9.70101
▁nothing	-9.70108
▁ಇದೇ	-9.70192
▁My	-9.70254
▁enough	-9.70254
▁ತುಂಬ	-9.70287
▁ಒ	-9.70298
▁विज्ञान	-9.70317
▁ಭಾರತದಲ್ಲಿ	-9.70367
▁स्थापित	-9.70405
▁जैसी	-9.70413
ಎಸ್	-9.70421
▁ಕು	-9.70476
▁study	-9.70477
▁and▁then	-9.7049
ವಾಗಿತ್ತು	-9.70531
▁popular	-9.70543
▁ಅವು	-9.70551
▁ಲಕ್ಷ	-9.70566
▁minister	-9.70568
▁सूचना	-9.70588
▁राज़्य	-9.7061
▁आपके	-9.70696
▁वाली	-9.70714
ors	-9.70718
▁27	-9.70735
▁let	-9.70794
▁ಜೀವನ	-9.70909
▁ಮುಂದೆ	-9.70955
ಗೊಳಿಸ	-9.7096
⁠	-9.70992
▁ನಟ	-9.71029
ಿದ್ದಾನೆ	-9.71077
▁Central	-9.71088
▁दल	-9.71093
▁persons	-9.71189
▁ಬೆಲೆ	-9.71206
▁places	-9.71229
▁ಬಾ	-9.71265
▁growth	-9.71286
▁साहित्य	-9.71292
▁British	-9.7134
यह	-9.71373
▁करने▁का	-9.71417
old	-9.71507
▁ಸೇರಿದಂತೆ	-9.71541
s▁have	-9.7155
▁रहा	-9.71603
▁पक्ष	-9.71626
▁ಅಂತ	-9.7165
▁स्कूल	-9.71766
▁जीव	-9.71873
▁स्थिति	-9.71897
▁नगर	-9.71945
▁He▁said	-9.71971
▁activities	-9.71985
▁know	-9.72041
▁ಕೇಳ	-9.72047
▁राजनीतिक	-9.72058
▁काल	-9.72062
▁प्रक्रिया	-9.72069
▁Our	-9.72104
▁Un	-9.72208
▁ಅಭಿವೃದ್ಧಿ	-9.72211
▁देता▁है	-9.7229
▁ಮತ್ತೆ	-9.72317
▁बल	-9.72471
▁security	-9.72499
▁along▁with	-9.72508
▁ಹೇಳಿದರು	-9.72528
▁ಆತನ	-9.72546
▁research	-9.72637
▁chief	-9.72642
▁स्पष्ट	-9.72685
▁80	-9.7269
▁ಸಮಸ್ಯೆ	-9.72711
▁cause	-9.72737
▁Two	-9.7276
me	-9.72842
▁gets	-9.72959
▁ಮಾಡಿದ	-9.7296
ವಿಲ್ಲ	-9.72987
▁test	-9.7311
▁is▁that	-9.73132
▁ಹಲವಾರು	-9.73234
▁nature	-9.73261
▁nor	-9.73287
वाद	-9.73292
▁अध्यक्ष	-9.73328
▁till	-9.73346
▁of▁its	-9.73365
ार	-9.73397
▁होना	-9.73426
ಜ್	-9.73435
ated	-9.73442
▁one▁of▁the	-9.73476
▁ऋ	-9.73477
▁दिखा	-9.73544
▁treatment	-9.7359
▁ಈಗಾಗಲೇ	-9.73591
▁प्रेम	-9.73657
▁ಬಂದ	-9.73689
▁famous	-9.73769
▁received	-9.73836
ಿನಲ್ಲಿ	-9.73859
▁गो	-9.7386
ji	-9.73895
▁परि	-9.73982
▁ಚ	-9.73997
▁नदी	-9.74001
ಯಾದ	-9.74007
ised	-9.74009
▁sent	-9.74034
ಗಿ	-9.74044
टा	-9.74129
"	-9.74149
मी	-9.74156
▁उत्पन्न	-9.74162
ed▁with	-9.74183
पी	-9.74302
▁seats	-9.74393
di	-9.74398
▁ಸತ್ಯ	-9.74426
े▁में	-9.74442
▁has▁a	-9.74449
▁Na	-9.74465
ವರ	-9.74469
ओं▁को	-9.74579
▁ಬೆಂಗಳೂರು	-9.74594
ent	-9.7465
▁ಎನ್	-9.7467
▁ಒಟ್ಟು	-9.74743
बा	-9.74834
▁said▁that	-9.74842
▁officials	-9.74854
ed▁in	-9.74869
▁पहली	-9.74918
▁cost	-9.74962
▁office	-9.75005
▁सार	-9.75034
▁list	-9.75059
▁लिए	-9.7508
▁ಪ್ರಕರಣ	-9.75127
ಿಸಿ	-9.75219
▁मेरा	-9.75332
▁article	-9.75425
▁friends	-9.75473
▁wrote	-9.75489
▁चुनाव	-9.75496
▁सि	-9.75562
▁effect	-9.75563
▁नहीं▁था	-9.75609
▁before▁the	-9.75626
▁मांग	-9.75637
उ	-9.75672
▁Khan	-9.75754
ಕಾ	-9.7576
▁art	-9.75764
▁through▁the	-9.75798
ಬಾರದು	-9.75807
▁रहे▁थे	-9.75834
▁क्षमता	-9.75856
▁The▁police	-9.7586
▁अच्छी	-9.75899
▁Uttar▁Pradesh	-9.75911
▁महाभारत	-9.75911
▁हाथ	-9.75925
▁रूप▁में	-9.75944
▁poor	-9.75947
▁जिसने	-9.75961
▁यह▁है▁कि	-9.75998
▁once	-9.76015
▁नए	-9.76016
men	-9.76069
▁अरब	-9.76177
▁सुन	-9.76197
▁कहीं	-9.76253
▁फ़	-9.76392
▁आई	-9.76405
▁पार्टी	-9.76429
▁ಉಪ	-9.76436
▁heart	-9.76512
▁such▁as	-9.76525
▁किया▁जा▁सकता▁है	-9.76546
▁evidence	-9.76605
▁संगीत	-9.76614
ीकरण	-9.76668
▁नेता	-9.76684
▁ವರದಿ	-9.76703
▁complete	-9.76751
▁ನೀಡ	-9.76762
▁हों	-9.76762
▁spread	-9.76799
▁मदद	-9.76911
▁सुधार	-9.76923
▁ಮನೆ	-9.76953
प्र	-9.77
▁बोल	-9.77029
▁बी	-9.7703
▁70	-9.77114
▁ಮಾಡಲು	-9.77188
▁प्रणाली	-9.7724
▁पास	-9.7724
एँ	-9.77281
ವಾಗ	-9.77411
▁फिर▁भी	-9.77618
▁सरकारी	-9.7763
be	-9.77636
▁a▁few	-9.77687
▁serious	-9.77692
▁विदेशी	-9.77918
▁Muslims	-9.77924
▁वही	-9.77971
ंस	-9.77997
▁बने	-9.78012
Applause	-9.78055
▁you▁can	-9.78059
▁clear	-9.78099
ಫ್	-9.78133
▁whose	-9.78148
ಚ	-9.78159
▁कर▁रहे▁हैं	-9.78228
▁ancient	-9.78285
▁peace	-9.78287
▁ಆದರೂ	-9.78315
▁on▁this	-9.78365
▁के▁अधीन	-9.78422
th▁century	-9.78501
▁चीन	-9.78522
▁foreign	-9.78544
▁live	-9.78613
कारी	-9.78669
▁ಆಯ್ಕೆ	-9.7876
▁hospital	-9.78771
▁ನಡೆಸ	-9.78783
▁parties	-9.78808
ाल	-9.78813
▁समान	-9.78838
▁मध्य	-9.78844
▁oil	-9.78904
ni	-9.78913
▁investigation	-9.78922
▁second	-9.78926
▁if▁you	-9.79003
▁ಮಹಾ	-9.7906
▁ex	-9.79066
▁region	-9.79085
▁ತಂಡ	-9.79097
ीन	-9.79109
▁जिन	-9.79242
▁से▁ही	-9.79284
▁ಯ	-9.79298
9	-9.79304
▁seen	-9.79362
▁किया▁था	-9.79432
ುತ್ತಾ	-9.79566
मान	-9.7957
▁हेतु	-9.79617
▁to▁have	-9.79627
▁the▁police	-9.79653
▁Committee	-9.79688
▁care	-9.79703
▁ಯೆಹೋವನ	-9.79722
▁half	-9.79778
▁told	-9.79815
▁अभी	-9.79826
▁अंग्रेजी	-9.79844
▁1.	-9.79889
▁खास	-9.79912
ಮಾಡ	-9.79952
▁तौर▁पर	-9.79971
▁लोक	-9.79972
▁ಪರ	-9.7998
▁by▁a	-9.80035
▁कवि	-9.80037
ುತ್ತಿಲ್ಲ	-9.80037
ted	-9.80045
▁महान	-9.80079
▁नये	-9.80154
▁गए	-9.8017
ों▁के▁बीच	-9.80193
▁हिंदू	-9.80203
▁parents	-9.8024
▁हो▁जाता▁है	-9.80246
▁He▁is	-9.80247
▁नहीं▁हैं	-9.80254
▁यद्यपि	-9.80258
ते▁है	-9.8027
▁जाती▁है	-9.80274
▁2.	-9.80296
▁been▁registered	-9.80327
▁धन	-9.80376
▁जाते▁हैं	-9.80517
▁मर	-9.80524
▁स्तर	-9.80566
▁died	-9.80568
▁science	-9.80608
▁अपराध	-9.80628
▁हा	-9.80641
▁above	-9.80657
▁so▁far	-9.80719
पन	-9.80756
▁31	-9.80795
▁beautiful	-9.80807
▁ಕಿ	-9.80822
ी▁से	-9.80837
▁पुलिस	-9.80841
▁comes	-9.8086
▁सके	-9.80918
ತಾ	-9.80921
▁ರಾಜ	-9.80979
▁capacity	-9.81039
▁कु	-9.81049
▁आरंभ	-9.81076
8	-9.81099
▁met	-9.81186
▁demand	-9.8122
▁Council	-9.81226
▁नामक	-9.81229
▁कि▁वे	-9.81254
▁rise	-9.81285
▁young	-9.81316
▁gives	-9.8134
▁Their	-9.81398
▁सत्ता	-9.81444
▁कार्यक्रम	-9.81455
तर	-9.81501
ंड	-9.81586
ಲೇ	-9.81624
▁ವ್ಯವಸ್ಥೆ	-9.81662
▁ಯೋಜನೆ	-9.81699
▁parts	-9.81752
▁दिया▁गया	-9.81765
ಎ	-9.81798
▁ಪರಿಹಾರ	-9.81844
▁ಮಾಡುವ	-9.81853
▁he▁had	-9.8192
▁सम	-9.81943
ದೇ	-9.81958
▁In▁this	-9.82074
▁living	-9.82078
▁ಪೊಲೀಸರ	-9.82079
▁created	-9.82082
▁Ma	-9.82161
id	-9.82192
▁इनके	-9.82196
▁होती▁हैं	-9.82228
▁energy	-9.82262
ಲಾಗುತ್ತದೆ	-9.82278
▁ಮಕ್ಕಳು	-9.82283
▁If▁you	-9.82312
ವ್	-9.82354
▁ಮಿ	-9.82393
▁विमान	-9.82405
▁low	-9.82412
▁ನಗರ	-9.82415
kar	-9.82465
ag	-9.8247
▁बहुत▁ही	-9.82485
s▁from	-9.82502
▁Rahul▁Gandhi	-9.82506
जा	-9.82536
▁ಶಿಕ್ಷಣ	-9.82543
▁material	-9.82578
▁सहित	-9.8262
▁उन्होने	-9.82668
स्	-9.82688
▁होकर	-9.82698
▁ಪಾತ್ರ	-9.82802
▁using	-9.82808
▁सुभाष	-9.82818
▁established	-9.82827
▁ಕಾರು	-9.82851
▁नया	-9.82876
▁ಇರುವ	-9.82915
▁दूसरा	-9.82967
▁उच्च	-9.83015
▁विडियो	-9.83037
▁मन	-9.831
▁सेना	-9.83114
▁और▁एक	-9.83163
▁युग	-9.83241
▁देते▁हैं	-9.83269
ಕ್ಕ	-9.83313
▁which▁are	-9.83319
ड़े	-9.83377
▁मंत्री	-9.83378
▁ज़्यादा	-9.83415
▁अल	-9.83437
▁ಹೆಸರು	-9.83497
ियों▁में	-9.83536
▁ಆರೋಪ	-9.8358
▁जैसा▁कि	-9.83672
▁v	-9.83675
▁भाव	-9.83677
▁32	-9.83698
▁market	-9.83719
▁ಇಂತಹ	-9.8375
▁चाहे	-9.83757
ಶ	-9.83831
▁wall	-9.83902
▁released	-9.83911
▁conditions	-9.83912
ang	-9.83936
▁वैज्ञानिक	-9.83967
▁data	-9.83969
▁ಸಂ	-9.83977
▁strong	-9.83996
▁Roy	-9.83999
हा	-9.83999
▁दक्षिण	-9.84046
▁issues	-9.84167
ियों▁के	-9.84174
s▁in▁the	-9.84242
▁अच्छे	-9.84259
▁ह्य	-9.84268
ed▁by▁the	-9.84331
▁कार	-9.84334
▁view	-9.84383
ling	-9.84451
▁ಸದ್ಯ	-9.84511
▁इस्तेमाल	-9.84544
ಿಸುವ	-9.84676
▁actor	-9.84802
▁समिति	-9.84807
▁स्वास्थ्य	-9.84833
▁क्षेत्र▁में	-9.84883
▁does	-9.84892
war	-9.84895
▁90	-9.84916
▁number	-9.84922
▁known	-9.84966
rs	-9.85001
▁ಕಾನೂನು	-9.85014
▁respect	-9.85021
▁stories	-9.85034
ಲಾಗುವುದು	-9.85035
▁ಕುಮಾರ್	-9.85072
▁rules	-9.8511
▁आप▁को	-9.85114
▁and▁his	-9.8516
▁increased	-9.85209
▁in▁the▁state	-9.85214
▁model	-9.8522
ने▁से	-9.85228
▁ली	-9.85237
▁संघर्ष	-9.85258
ಯೋ	-9.85263
day	-9.85286
▁and▁he	-9.85294
▁कै	-9.85331
▁Your	-9.85411
▁प्रवेश	-9.8543
ती▁हैं	-9.85456
▁workers	-9.85459
▁Assembly	-9.85465
▁नई	-9.85491
▁rate	-9.8551
ja	-9.85617
▁डाल	-9.85671
▁in▁the▁country	-9.8568
▁success	-9.85718
▁pro	-9.85721
२	-9.85729
ton	-9.85752
▁higher	-9.85766
▁sub	-9.85773
▁एस	-9.85789
▁का▁उपयोग	-9.85837
▁एक▁ही	-9.85881
▁ವಿಚಾರ	-9.85899
ों▁के▁साथ	-9.85905
िए	-9.85939
▁species	-9.86071
▁especially	-9.86089
▁ತಾ	-9.861
▁space	-9.8612
▁those▁who	-9.86158
co	-9.86196
▁ಗೋ	-9.86199
▁35	-9.8625
ುತ್ತಿದ್ದ	-9.86314
▁usually	-9.86401
▁fight	-9.86417
▁हमारा	-9.86417
ರೇ	-9.86497
▁ಮೆ	-9.8651
ting	-9.86566
da	-9.86598
▁cultural	-9.86628
▁लक्ष्य	-9.86645
▁पैदा	-9.86803
दार	-9.86835
▁बिजली	-9.86897
▁भूमि	-9.869
▁news	-9.86909
▁have▁a	-9.86919
▁seven	-9.86993
▁related	-9.8705
ದಂತೆ	-9.87065
ing▁a	-9.87089
▁such▁a	-9.87093
▁मिला	-9.87094
▁Category	-9.87118
▁He▁has	-9.87166
▁ಸ್ಥಾನ	-9.87203
▁best	-9.87247
▁saying	-9.87256
In	-9.87295
▁तुम	-9.87366
स्त	-9.87408
▁part▁of▁the	-9.87424
▁relationship	-9.8743
▁disease	-9.8748
▁will▁not	-9.87559
▁सीधे	-9.87644
▁कर▁सकता▁है	-9.87692
▁ಸರಕಾರ	-9.87699
▁future	-9.87796
▁में▁ही	-9.87826
▁यह▁भी	-9.87841
े▁हुए	-9.87846
▁This▁was	-9.87882
▁ಕೋಟಿ	-9.87922
▁करेंगे	-9.87982
▁the▁most	-9.88014
▁ಯಾರ	-9.88115
▁ಲ	-9.88133
▁कर▁दिया	-9.88143
▁stand	-9.88149
▁King	-9.88161
▁farmers	-9.88188
▁गिर	-9.88201
▁the▁state	-9.88261
▁मु	-9.88264
▁that▁we	-9.88291
▁matters	-9.88322
▁स्वतंत्रता	-9.88326
▁कंपनी	-9.88367
▁गेंद	-9.88375
▁होने	-9.88406
▁alone	-9.88444
▁ದೂರ	-9.88487
▁Krishna	-9.885
▁front	-9.88501
▁lower	-9.88525
im	-9.88574
▁सरकार▁ने	-9.88576
▁night	-9.88624
▁king	-9.88645
▁f	-9.88673
▁sex	-9.88769
▁बंगाल	-9.88813
▁temples	-9.88831
▁गैर	-9.88924
▁विवाद	-9.88995
▁विशिष्ट	-9.88995
▁happy	-9.88997
▁among▁the	-9.89015
▁General	-9.89028
▁went	-9.89044
▁Mr	-9.89045
▁उनसे	-9.89048
ान	-9.89079
▁ಪರಿಸ್ಥಿತಿ	-9.8909
▁mother	-9.89104
▁This▁is▁a	-9.89154
▁because▁of	-9.89169
▁ಸಚಿವ	-9.8922
▁easy	-9.89222
▁temperature	-9.89245
▁ಮುಂದಿನ	-9.89251
▁and▁they	-9.89257
▁कीट	-9.89271
▁ಪಾಕಿಸ್ತಾನ	-9.89312
▁able▁to	-9.8932
▁films	-9.89329
▁करने▁वाले	-9.89332
▁programme	-9.89348
▁दर	-9.89366
▁या▁फिर	-9.89369
▁Shri	-9.89422
▁सऋ	-9.89434
▁29	-9.89465
:▁“	-9.89468
▁ढ	-9.89471
▁अमेरिका	-9.89491
▁killed	-9.8957
▁ಕಾರ್ಯಕ್ರಮ	-9.89588
▁ways	-9.8959
ನ್ಸ್	-9.89635
▁rights	-9.89643
▁injured	-9.89674
▁and▁I	-9.89693
▁that▁they	-9.89716
रो	-9.89758
▁छोटी	-9.89761
बी	-9.89774
ಯಾಗ	-9.8979
▁their▁own	-9.89791
▁responsibility	-9.89803
▁ಸಂಸ್ಥೆ	-9.89807
▁कहा	-9.89821
▁ಸಾ	-9.89822
▁everyone	-9.89847
si	-9.89861
son	-9.89862
▁ಸಂಬಂಧ	-9.89886
▁source	-9.899
▁media	-9.89913
▁होंगे	-9.89917
▁his▁own	-9.8995
▁dead	-9.90031
▁ನೋಡಿ	-9.90073
▁kept	-9.90076
▁हैं▁और	-9.90134
▁outside	-9.90219
▁normal	-9.90242
कि	-9.90253
▁अन	-9.9029
▁happened	-9.90384
▁and▁its	-9.9049
▁ಇಬ್ಬರು	-9.90512
▁groups	-9.90518
▁ಖ	-9.90543
▁trying	-9.90579
▁of▁the▁country	-9.90657
▁the▁BJP	-9.90688
▁ಹಾಕ	-9.9069
▁Lok▁Sabha	-9.9073
▁लागू	-9.90806
▁advice	-9.90876
▁Bank	-9.90911
▁2000	-9.90919
ेंगे	-9.90921
▁पेश	-9.9096
▁संबंध	-9.90982
▁think	-9.91027
▁environment	-9.91038
್ಯಾ	-9.91044
har	-9.91092
ಲಾಗುತ್ತಿದೆ	-9.91095
▁नियंत्रण	-9.91147
▁समस्या	-9.91182
▁ಮಾ	-9.91184
▁जिला	-9.91257
▁function	-9.91289
▁ತನಿಖೆ	-9.91292
▁ಭಾಗ	-9.9133
▁ಸಂಪೂರ್ಣ	-9.914
▁विश्वविद्यालय	-9.91425
▁–	-9.91462
▁Shah	-9.91528
_	-9.91574
▁Both	-9.9166
ram	-9.91682
ಂಡ	-9.91725
s▁on	-9.91735
▁accused	-9.91751
▁लिख	-9.91834
▁features	-9.91842
▁force	-9.91884
▁design	-9.919
▁ಮೂಲ	-9.91919
▁ಸುದ್ದಿ	-9.91931
▁pain	-9.91939
▁considered	-9.91942
▁hit	-9.92043
िका	-9.92101
नि	-9.92118
▁England	-9.92121
▁heard	-9.92122
▁बाद	-9.92191
▁ಕುಟುಂಬ	-9.92194
▁animals	-9.92205
▁वापस	-9.92214
▁उपकरण	-9.92256
▁ಎಂಬುದು	-9.92289
▁खोज	-9.92296
▁उचित	-9.92299
ise	-9.924
▁ಪ್ರಕಾರ	-9.92473
▁First	-9.92571
▁मुसलमानों	-9.92614
▁ನರೇಂದ್ರ▁ಮೋದಿ	-9.92636
v	-9.92638
▁ಎಂಬುದನ್ನು	-9.92667
▁आय	-9.9276
▁for▁this	-9.92775
▁PM	-9.92841
ot	-9.92861
▁ನಾ	-9.92906
ने▁पर	-9.92941
▁chief▁minister	-9.92956
▁financial	-9.92956
▁गलत	-9.93013
▁until	-9.9306
▁construction	-9.93098
▁constitution	-9.93122
▁faith	-9.93137
▁personal	-9.93247
ಿಯ	-9.93262
▁date	-9.93283
▁you▁have	-9.93344
▁from▁a	-9.93348
▁cave	-9.93382
▁मार	-9.93445
▁police▁station	-9.93476
▁भारी	-9.93503
▁विरोध	-9.93504
▁गये	-9.93556
▁the▁whole	-9.93599
▁ಬೆ	-9.93602
▁struggle	-9.93637
▁ತೀವ್ರ	-9.93663
ಬೇಕೆಂದು	-9.93675
▁gave	-9.93691
▁बाल	-9.93702
▁ಗೌರವ	-9.93818
▁birth	-9.93822
▁ಬ್ಯಾಂಕ್	-9.93878
▁director	-9.93903
▁विभाग	-9.93942
▁hold	-9.93981
▁ಪ್ರಶಸ್ತಿ	-9.93992
▁ಎಂದ	-9.93992
▁recently	-9.93996
▁लाभ	-9.93998
ರಷ್ಟು	-9.94006
ge	-9.94007
ने▁के▁बाद	-9.9407
▁batsman	-9.94147
▁ಸಾಲ	-9.94175
▁ಈ▁ಕುರಿತು	-9.9418
▁was▁also	-9.94272
▁ಘಟನೆ	-9.94305
sa	-9.94315
▁भेज	-9.94323
▁अव	-9.94338
▁मुख	-9.94343
▁ರಾಹುಲ್▁ಗಾಂಧಿ	-9.94349
▁issue	-9.94382
▁Thus	-9.94391
▁सिद्धांत	-9.94419
▁व्यापक	-9.9449
▁ಪ್ರಶ್ನೆ	-9.94502
ंद	-9.94514
▁ಸಾವು	-9.94546
ी▁के	-9.94576
दा	-9.94581
▁army	-9.94605
▁turn	-9.94609
▁ಜನ	-9.94638
▁ಸ್ವಲ್ಪ	-9.94648
▁north	-9.9467
▁stage	-9.94708
▁to▁give	-9.94749
▁International	-9.94779
▁administration	-9.94781
▁daily	-9.94783
▁cities	-9.9479
ಲ್ಲೂ	-9.94797
ಗೂ	-9.94836
ತ್ತು	-9.94876
▁संबंधी	-9.94909
▁changed	-9.94917
▁quality	-9.94923
▁ground	-9.94932
▁a▁good	-9.94971
▁ವ್ಯಕ್ತಿ	-9.94991
▁the▁Government	-9.94992
▁अभि	-9.95001
▁ಬಲ	-9.95064
ां	-9.95074
▁needed	-9.95107
▁United▁States	-9.95131
▁अर्थात	-9.95134
▁bad	-9.95138
▁ಹಾಗೆ	-9.95158
ab	-9.95169
▁३	-9.95185
▁ಮೊದಲು	-9.95209
▁Union	-9.95273
▁रही	-9.95311
▁तो▁यह	-9.95331
▁दृष्टि	-9.95336
▁game	-9.95361
▁US	-9.95448
▁ವ	-9.95473
ी▁थी	-9.95521
▁total	-9.95547
▁south	-9.95568
▁मात्र	-9.95611
▁industries	-9.95611
▁और▁वह	-9.95654
▁produced	-9.95665
जो	-9.95667
▁used▁to	-9.95673
▁इसके▁बाद	-9.95774
ದಿ	-9.95777
▁phone	-9.95784
▁ಪಾ	-9.95811
ಸೆ	-9.95854
▁वै	-9.95858
▁Mo	-9.95866
▁Cha	-9.95923
▁campaign	-9.95925
▁करते▁थे	-9.95959
hi	-9.95977
▁the▁way	-9.96004
▁ನಡೆಯ	-9.96006
तम	-9.96036
▁were▁present	-9.96114
▁session	-9.96137
▁could▁not	-9.9617
00	-9.96177
▁ಗಳನ್ನು	-9.96186
ಣ್ಣ	-9.96194
▁giving	-9.96214
▁individual	-9.96227
▁भिन्न	-9.96238
▁terrorism	-9.9624
▁ಆರ್ಥಿಕ	-9.96242
▁ರಸ್ತೆ	-9.96253
▁necessary	-9.96264
▁act	-9.96284
▁मूल्य	-9.96367
ूर	-9.96425
▁ಜೀವ	-9.96455
▁अंग	-9.96467
ेट	-9.96536
▁भोजन	-9.96549
▁सर	-9.96566
▁मृत्यु	-9.96593
▁ನಿಂದ	-9.96677
▁अधिकारी	-9.96692
ol	-9.96713
▁months	-9.96768
per	-9.96779
▁ಎಷ್ಟು	-9.96828
▁अध्ययन	-9.96836
▁ಎಂದಿದ್ದಾರೆ	-9.96846
>	-9.96853
▁raised	-9.96867
ical	-9.96871
▁going	-9.96974
▁of▁God	-9.96986
▁ಯಾರೂ	-9.97004
▁Me	-9.9705
▁प्रसिद्ध	-9.97113
▁सामग्री	-9.9712
ಡು	-9.97154
▁writing	-9.97197
ari	-9.9731
▁ಸಂಪರ್ಕ	-9.97318
▁cut	-9.97349
▁Hindus	-9.97358
▁kids	-9.97413
ಬೇಡಿ	-9.9744
ंट	-9.97455
▁project	-9.97511
▁and▁it	-9.97539
▁ದಿ	-9.97549
▁ಇವರ	-9.97664
▁job	-9.97665
▁कहानी	-9.97665
ಶ್	-9.97673
▁हिन्दू	-9.97696
▁हुआ▁था	-9.97764
▁or▁a	-9.97773
▁जाति	-9.97781
ುತ್ತಿದ್ದರು	-9.97839
▁पहला	-9.97843
▁TV	-9.97869
▁You▁can	-9.97869
▁150	-9.97901
▁Mar	-9.97938
ter	-9.97993
▁ಮಾಜಿ	-9.98006
year	-9.98067
▁रहा▁था	-9.9808
▁particularly	-9.98086
▁or▁the	-9.98109
▁अत्य	-9.98122
▁ಇದ್ದ	-9.98166
▁ಪೊಲೀಸ್	-9.98168
▁ಅಧಿಕಾರಿಗಳು	-9.98191
▁god	-9.98233
▁Australia	-9.98239
ರೋ	-9.98247
▁red	-9.98248
▁प्रधानमंत्री	-9.98255
ther	-9.98282
ಆ	-9.98286
▁when▁he	-9.9829
▁as▁well	-9.98367
▁2020	-9.98427
▁पांच	-9.98431
▁प्राय	-9.98453
▁रिपोर्ट	-9.98458
▁जमा	-9.98477
line	-9.98481
जन	-9.98523
▁makes	-9.98532
▁win	-9.9854
▁ರಾಜ್ಯದ	-9.98543
▁ನಿರ್ಧಾರ	-9.98582
▁North	-9.98603
मन	-9.98615
▁completely	-9.98662
▁देना	-9.98668
वादी	-9.9873
स्ट	-9.9874
▁to▁this	-9.98766
▁ಕಳೆದ	-9.98769
▁होता	-9.98781
▁औद्योगिक	-9.98794
▁k	-9.98852
▁anti	-9.98904
▁elected	-9.98933
ie	-9.99043
ara	-9.9905
▁पुराण	-9.99092
▁ದೆಹಲಿ	-9.99143
▁जापान	-9.99156
▁यू▁ट्यूब	-9.99176
▁single	-9.99239
▁step	-9.99286
▁ड	-9.99323
▁amount	-9.99362
▁पर्याप्त	-9.99371
▁past	-9.99417
▁black	-9.99461
▁practice	-9.99498
▁plant	-9.99513
▁is▁an	-9.99517
▁जीन	-9.9953
ani	-9.99611
▁move	-9.99632
▁for▁his	-9.99655
▁Rajasthan	-9.99658
▁Other	-9.99697
▁ಟ	-9.99731
ಗ್	-9.99735
▁संगठन	-9.99747
▁300	-9.99803
▁X	-9.99838
▁feel	-9.99884
▁Ba	-9.99913
एस	-9.99915
▁eight	-9.99924
▁वास्तविक	-9.99982
▁fine	-10.0006
१	-10.0007
▁up▁to	-10.0007
▁को▁भी	-10.0009
▁ಗಳು	-10.0014
ಐ	-10.0016
▁खर्च	-10.0019
▁ऐ	-10.0021
▁संपर्क	-10.0024
▁कहा▁जाता▁है	-10.0025
▁Kannada	-10.0026
▁देने	-10.0027
▁published	-10.003
ಚ್	-10.0033
▁पढ़	-10.0036
▁ಅದೇ	-10.0043
▁reported	-10.0043
▁विशाल	-10.0045
ap	-10.0048
▁Commission	-10.0053
७	-10.0057
नाथ	-10.0058
घ	-10.0062
one	-10.0062
▁Every	-10.0066
▁Or	-10.0069
▁of▁the▁world	-10.0079
ಿದನು	-10.0081
छ	-10.0083
▁road	-10.0088
▁trade	-10.0091
▁उपलब्ध	-10.0092
▁are▁the	-10.0094
▁करते▁हुए	-10.0095
▁पीछे	-10.0096
▁ಯಾಕೆ	-10.0097
▁ಪಕ್ಷ	-10.0105
▁cannot▁be	-10.0106
▁cells	-10.0109
पा	-10.0109
▁marriage	-10.0111
०	-10.0111
ವಾಯಿತು	-10.0111
▁top	-10.0113
▁ಕನ್ನಡ	-10.0117
▁कि▁यह	-10.012
ते▁थे	-10.0131
▁required	-10.0134
▁stone	-10.0137
▁के▁भीतर	-10.0145
▁था▁और	-10.0145
▁ಪಡೆಯ	-10.0151
▁यात्रा	-10.0155
▁देश▁के	-10.0158
▁direct	-10.017
▁Well	-10.017
▁record	-10.0175
▁series	-10.0176
▁रहता▁है	-10.0181
▁private	-10.0182
▁प्रशासन	-10.0183
▁ವಾಹನ	-10.0185
ುವ▁ಮೂಲಕ	-10.0187
ता▁था	-10.0189
▁nation	-10.0192
▁जीत	-10.0192
▁The▁government	-10.0194
▁रे	-10.0196
▁अंतर	-10.0197
▁Let	-10.0198
▁जिसकी	-10.0199
▁leave	-10.0205
▁नयी	-10.0218
▁परंपरा	-10.0221
ड़ी	-10.0224
▁Islam	-10.0227
▁the▁Indian	-10.0229
डी	-10.0231
▁known▁as	-10.0234
▁answer	-10.0236
ल्ल	-10.0236
ೆಯ	-10.0238
▁the▁best	-10.0238
▁आया	-10.0239
ण्ड	-10.0246
▁pay	-10.0247
िम	-10.0248
▁विधेयक	-10.0248
▁clean	-10.025
▁मौजूद	-10.0252
५	-10.0253
▁bus	-10.0254
ना▁चाहिए	-10.0255
▁we▁are	-10.0257
▁ರಾ	-10.0258
ವನ್ನೂ	-10.0259
▁नागरिक	-10.0263
ಪ್ರ	-10.0265
▁ಬಳಿ	-10.0271
▁ಸಾಮಾನ್ಯ	-10.0272
ಕರ್	-10.0273
▁The▁first	-10.0277
▁account	-10.0277
▁ತಕ್ಷಣ	-10.0278
धिक	-10.0282
▁Su	-10.0283
▁It▁has	-10.0293
▁Con	-10.0294
▁ಫ	-10.0298
तः	-10.0303
▁decided	-10.0305
▁we▁can	-10.0305
▁ವಿದ್ಯಾರ್ಥಿಗಳು	-10.0308
▁there▁is▁no	-10.0308
▁industrial	-10.0316
▁निकाल	-10.0317
▁to▁see	-10.0317
▁ಚಿಕಿತ್ಸೆ	-10.0318
▁ಚುನಾವಣೆ	-10.0322
▁powers	-10.0323
ನೂ	-10.0323
▁द्वीप	-10.0323
▁ಚರ್ಚೆ	-10.0327
▁ದೇವರು	-10.033
एक	-10.0335
▁a▁great	-10.0335
z	-10.0336
▁Former	-10.0341
▁Where	-10.0344
▁पत्र	-10.0346
▁notice	-10.0347
▁at▁least	-10.0352
▁added	-10.0355
▁ವಿಶ್ವ	-10.0361
▁steps	-10.0361
iya	-10.0363
▁ಮೇ	-10.0363
▁ಭ	-10.0365
▁ಹೊಂದಿದೆ	-10.0365
▁सह	-10.0366
▁ಸಭೆಯಲ್ಲಿ	-10.0368
▁about▁it	-10.0368
ಕಿ	-10.0375
▁समुद्र	-10.0378
▁described	-10.0382
▁फोन	-10.0384
▁who▁was	-10.0385
▁the▁other	-10.0395
▁समुदाय	-10.0399
▁महत्व	-10.04
▁languages	-10.0402
ರನ್ನು	-10.0402
av	-10.0404
▁इस▁बात	-10.0407
om	-10.0408
▁growing	-10.0408
,▁""	-10.0408
▁आपकी	-10.0409
ಲೂ	-10.0411
▁अधिनियम	-10.0412
▁worship	-10.0416
▁निश्चित	-10.0417
▁House	-10.0418
▁और▁ये	-10.0421
▁want	-10.0422
▁ಪಕ್ಷದ	-10.0425
▁legal	-10.0427
▁of▁Indian	-10.0427
▁कृषि	-10.0433
▁मिलता▁है	-10.0434
▁सीमा	-10.0434
▁Gandhi	-10.0437
▁बच्चन	-10.0439
▁ma	-10.044
esh	-10.0443
mon	-10.0447
▁हैं▁जो	-10.0448
▁A▁case▁ha	-10.045
▁सकती▁है	-10.045
▁happen	-10.0453
▁ही▁नहीं	-10.0453
▁ಕಷ್ಟ	-10.0455
▁award	-10.0455
▁45	-10.0457
▁ತಿಳಿಸ	-10.0458
▁मा	-10.0471
ಕಾರ	-10.0491
os	-10.0491
▁crores	-10.0495
▁perhaps	-10.0495
▁behind	-10.0496
▁thus	-10.0503
▁field	-10.0503
.▁—	-10.0504
▁२	-10.0506
▁रवीन्द्रनाथ	-10.0506
▁coming	-10.0508
▁meaning	-10.0515
s▁not	-10.0516
▁schools	-10.0517
ig	-10.052
▁सर्वाधिक	-10.0522
ik	-10.0523
▁don	-10.0524
▁देश▁में	-10.0524
▁message	-10.0526
▁न▁हो	-10.0526
time	-10.0527
▁prime▁minister	-10.0531
▁उदाहरण	-10.054
ियाँ	-10.0542
▁ವೈ	-10.0543
▁ತಂದೆ	-10.0549
▁provide	-10.0555
▁leading	-10.0555
▁Ganga	-10.0558
▁ರಾಷ್ಟ್ರ	-10.0559
▁के▁अंतर्गत	-10.0561
▁tax	-10.0561
▁क्रिया	-10.0565
▁ಕೆಲಸ▁ಮಾಡ	-10.0567
▁fast	-10.0574
▁influence	-10.0578
▁That▁is	-10.0583
▁जाए	-10.0588
▁सात	-10.0594
पुर	-10.0598
▁the▁last	-10.06
▁had▁a	-10.0603
▁का▁नाम	-10.0606
▁anyone	-10.0611
▁Christian	-10.0611
▁cell	-10.0617
▁जाना	-10.0617
▁plants	-10.0618
▁Punjab	-10.0619
▁मार्ग	-10.062
▁La	-10.0624
▁शिव	-10.0628
▁लेकर	-10.0633
he	-10.0638
▁American	-10.0638
्त	-10.0642
▁rain	-10.0645
s▁like	-10.0651
▁क़्या	-10.0655
्या	-10.0655
ಗಳೂ	-10.0659
ಂಗ	-10.0659
▁वाद	-10.0662
र्स	-10.0664
टर	-10.0667
▁आता▁है	-10.0667
▁carry	-10.0671
▁following	-10.0675
▁को▁एक	-10.0676
िश	-10.0682
▁होना▁चाहिए	-10.0683
ing▁of	-10.0691
▁उच्च▁न्यायालय	-10.0692
pa	-10.07
्र	-10.0705
ized	-10.0706
▁like▁the	-10.0706
▁they▁have	-10.0709
▁ಅಲ್ಲದೆ	-10.071
▁the▁main	-10.0713
▁but▁also	-10.0715
▁आकार	-10.0717
▁ಆಡ	-10.0719
▁committee	-10.0719
▁ರಾಜ್ಯದಲ್ಲಿ	-10.0722
▁Tagore	-10.0723
▁Bengaluru	-10.0723
▁Everyone	-10.0723
▁निर्मित	-10.0724
▁share	-10.0725
▁purpose	-10.0726
ರಾಗಿ	-10.0728
▁प्रकाश	-10.0728
▁Dont	-10.0731
▁price	-10.0732
▁company	-10.0732
▁formed	-10.0739
▁गंभीर	-10.0739
▁South	-10.0739
▁statement	-10.0743
▁across	-10.0747
▁की▁है	-10.0751
▁structure	-10.0751
▁and▁in	-10.0753
▁insects	-10.0754
ಾಟ	-10.0761
▁the▁accused	-10.0762
▁Maharashtra	-10.0762
बर	-10.0763
▁ನೀನು	-10.0768
▁ಅರ್ಥ	-10.0782
▁app	-10.0782
▁तार	-10.0787
▁ಸಿಂಗ್	-10.0787
▁ನಾಲ್ಕು	-10.0789
▁ka	-10.0794
▁member	-10.0799
▁consider	-10.0802
▁deep	-10.0803
▁spiritual	-10.0803
▁अवसर	-10.0804
ing▁and	-10.0804
▁सीख	-10.0805
.▁”	-10.081
ಧ	-10.0811
ಟ್ಟ	-10.0814
▁ನಿರ್ದೇಶಕ	-10.0817
▁ಆಫ್	-10.0821
▁debate	-10.0822
▁बंद	-10.0823
▁but▁it	-10.0827
▁`	-10.0828
▁दस	-10.0828
▁hours	-10.0829
ालय	-10.0833
▁प्रमाण	-10.0834
▁release	-10.0837
▁festival	-10.0841
▁ದರ	-10.0841
▁तापमान	-10.0848
19	-10.0848
▁ಎಲ್ಲರೂ	-10.0853
▁इस्लाम	-10.0854
▁माल	-10.0856
▁गति	-10.0864
▁Im	-10.0865
▁करते	-10.0866
ಯೆ	-10.0867
▁value	-10.0867
▁ನಟಿ	-10.0868
▁ಹಾಗಾಗಿ	-10.087
▁Only	-10.0875
▁आदमी	-10.0877
▁takes	-10.0878
▁loss	-10.0881
▁कुरान	-10.0884
▁ಜೆ	-10.0889
ಂದ	-10.0893
ee	-10.0895
▁सर्व	-10.0899
▁भाई	-10.0907
▁ನಾಯಕ	-10.0908
▁ತರ	-10.0908
▁अदालत	-10.0908
▁ಪತ್ನಿ	-10.0912
▁हूँ	-10.0912
▁ಒಂದೇ	-10.0913
▁mean	-10.0914
▁प्राकृतिक	-10.0915
▁continued	-10.092
▁राजस्थान	-10.0921
ುತ್ತಿವೆ	-10.0922
▁goes	-10.0926
ದ▁ಬಗ್ಗೆ	-10.0929
▁Law	-10.0931
nd	-10.0935
ala	-10.0936
▁High▁Court	-10.0938
▁भी▁है	-10.094
12	-10.0942
ೋಣ	-10.0945
शन	-10.0945
रूप	-10.0947
▁lives	-10.0947
▁the▁British	-10.0949
ಆರ್	-10.0952
▁ಮಳೆ	-10.0955
▁ಕರ್ನಾಟಕ	-10.0958
▁based▁on	-10.0961
त्र	-10.0961
▁आधार	-10.0961
ात्मक	-10.0961
▁I▁will	-10.0962
▁एक▁बार	-10.0966
▁आवश्यक	-10.0969
▁ध्यान	-10.097
▁range	-10.0972
ಲಾದ	-10.0974
ಂಬ	-10.0976
ts	-10.0977
▁rest	-10.0986
▁जोड़	-10.0988
▁below	-10.0991
ಲ್ಪಟ್ಟ	-10.0992
▁हो▁सकती▁है	-10.0995
▁सवाल	-10.0995
ियों▁से	-10.0996
▁दिल	-10.0996
▁the▁next	-10.1
ंक	-10.1001
▁base	-10.1002
▁छोड़	-10.1003
▁claim	-10.1003
▁Bill	-10.1004
▁ಸ್ಥಳೀಯ	-10.1006
▁ಧರ್ಮ	-10.1006
10	-10.1007
▁ಹೊರ	-10.1007
▁बहु	-10.1007
▁Sri	-10.1008
▁ಗಳ	-10.1008
▁यदि▁आप	-10.1012
▁who▁is	-10.1014
▁इनका	-10.1017
▁difference	-10.1018
sha	-10.102
▁से▁संबंधित	-10.102
▁दर्शन	-10.1024
▁काव्य	-10.1034
▁हवा	-10.1035
▁whole	-10.1038
▁ನ್ಯಾಯ	-10.1038
▁और▁फिर	-10.1045
▁Another	-10.1046
▁ಬೇಡ	-10.1046
▁पश्चिमी	-10.1047
▁ಓ	-10.105
▁offered	-10.1052
no	-10.1055
nath	-10.1058
▁See	-10.106
▁protest	-10.1061
raj	-10.1068
ेगा	-10.107
▁गुण	-10.1073
वान	-10.1073
▁ಮಾಡಿದ್ದಾರೆ	-10.1075
ಕೋ	-10.1078
▁but▁the	-10.1078
वार	-10.108
▁independence	-10.1084
▁ಚೆನ್ನಾಗಿ	-10.1085
▁ideas	-10.1092
▁ಆಡಳಿತ	-10.1095
▁interest	-10.1096
ಡೆ	-10.1101
▁कौन	-10.1111
▁instead	-10.1112
▁gold	-10.1113
▁के▁आधार▁पर	-10.1117
▁interesting	-10.1119
▁voice	-10.112
▁there▁were	-10.1121
▁पोजीशन	-10.1126
काल	-10.1127
▁di	-10.1128
▁हजार	-10.114
▁currently	-10.1141
▁अक्सर	-10.1146
▁बाजार	-10.1146
▁Virat▁Kohli	-10.1146
▁बहुत▁से	-10.115
▁to▁go	-10.1151
▁रहते▁हैं	-10.1151
▁on▁his	-10.1155
▁स्थान▁पर	-10.1156
▁तेज	-10.1163
ಿರುವುದು	-10.1165
▁१८	-10.1168
▁मशीन	-10.1169
▁official	-10.1171
▁400	-10.1174
▁ಅಂದ	-10.1176
▁medical	-10.1178
▁con	-10.1178
▁in▁its	-10.118
ವರೆಗೆ	-10.1182
▁speed	-10.1187
ಮ್ಮ	-10.1188
▁picture	-10.1193
▁पुस्तक	-10.1197
▁there▁is▁a	-10.1198
▁ಭಯ	-10.1199
▁ಮನ	-10.1199
▁milk	-10.1202
▁ಸ್ವ	-10.1202
s▁or	-10.1204
▁विवाह	-10.1204
▁ready	-10.1205
▁greater	-10.1207
▁thinking	-10.1208
▁विस्तार	-10.1209
▁largest	-10.1213
ial	-10.1215
▁forms	-10.1222
▁ಸಿಬ್ಬಂದಿ	-10.1224
▁so▁that	-10.1225
▁feeling	-10.123
▁Sam	-10.1234
▁to▁his	-10.1236
▁But▁it	-10.1242
▁हुआ▁है	-10.1244
▁बनाने	-10.1245
▁a▁small	-10.1249
▁के▁नाम▁से	-10.1251
▁the▁case	-10.1251
▁ಜಾ	-10.1251
▁आर	-10.1252
▁Whil	-10.1252
▁hope	-10.1254
▁ಬಹು	-10.1255
ali	-10.126
▁खंड	-10.1261
▁discussion	-10.1271
▁संदर्भ	-10.1272
▁travel	-10.1273
▁except	-10.1275
▁मैदान	-10.1276
▁eyes	-10.1276
▁Can	-10.1278
▁round	-10.1279
han	-10.128
▁offer	-10.128
▁रेलवे	-10.1282
ದಲ್ಲಿರುವ	-10.1283
▁to▁him	-10.1288
▁लोगों▁की	-10.129
s▁have▁been	-10.1292
▁एम	-10.1294
▁into▁a	-10.1296
▁complex	-10.1297
▁battle	-10.1297
▁स्तर▁पर	-10.1297
▁accepted	-10.1298
▁ತೋರಿಸ	-10.1299
▁डर	-10.13
ा▁था	-10.1301
▁in▁order	-10.1302
▁पिता	-10.1309
ತನ	-10.131
▁ನಿಜ	-10.131
▁दीवार	-10.1312
▁room	-10.1314
▁ಸಹಾಯ	-10.1314
▁companies	-10.1316
▁ಗು	-10.1316
▁हाल	-10.1322
े▁लिए	-10.1323
▁खोल	-10.1329
▁देखा	-10.1332
▁व्यक़्ति	-10.1335
▁star	-10.134
▁century	-10.1344
▁ರೀತಿಯಲ್ಲಿ	-10.1347
▁ವೆಚ್ಚ	-10.135
▁सीमित	-10.135
▁of▁an	-10.1351
▁white	-10.1354
▁civil	-10.1356
▁va	-10.1361
▁प्रस्तुत	-10.1362
▁ಸೇವೆ	-10.1365
ಮೆ	-10.137
▁there▁was	-10.1378
▁he▁is	-10.1381
▁ಆದಾಗ್ಯೂ	-10.1384
▁सभा	-10.1386
▁character	-10.139
▁generally	-10.1391
▁ಕ್ರಮ	-10.1393
▁of▁life	-10.1395
▁third	-10.1396
▁assembly	-10.1397
ಬೇಕು▁ಎಂದು	-10.1399
▁वन	-10.14
▁साथ▁ही	-10.1401
▁in▁our	-10.1404
ler	-10.1406
ud	-10.1409
▁of▁Rs	-10.1413
▁ಕೂಡಾ	-10.1414
▁देव	-10.1416
▁जितन	-10.1416
▁ಬಳಸ	-10.1423
▁स्थल	-10.1424
▁करे	-10.1426
▁जैसे▁कि	-10.1432
ढ	-10.1446
▁खो	-10.1449
▁टीम	-10.1451
▁सुना	-10.1451
▁online	-10.1451
▁Most	-10.1454
▁player	-10.1456
▁एल	-10.1456
▁दु	-10.1456
▁Bo	-10.1458
▁ಶಕ್ತಿ	-10.1458
▁माना▁जाता▁है	-10.146
▁सार्वजनिक	-10.1463
▁declared	-10.1468
▁Ha	-10.1469
ರಿಂದ	-10.147
▁स्व	-10.147
▁ones	-10.1471
▁CM	-10.1472
▁ಸಂಖ್ಯೆ	-10.1474
್ಯ	-10.1477
▁ಅದರಲ್ಲಿ	-10.1479
▁ಇವರು	-10.148
▁ತಾಯಿ	-10.1482
ities	-10.1483
▁मुस्लिम	-10.1483
▁तो▁आप	-10.1485
▁is▁called	-10.1486
▁CO	-10.1487
ುವಾಗ	-10.1487
▁remained	-10.1488
mer	-10.1488
▁सिर	-10.1491
▁के▁सामने	-10.1492
▁ಎರಡನೇ	-10.1498
▁inside	-10.1499
▁ಉದ್ದೇಶ	-10.1503
▁poems	-10.1504
▁paid	-10.1508
▁ಕಟ್ಟ	-10.1508
s▁with	-10.151
▁खा	-10.1513
▁close	-10.1513
▁transport	-10.1514
▁ಪ್ರೀತಿ	-10.1516
ಗು	-10.152
▁spirit	-10.1522
▁income	-10.1522
▁wife	-10.1522
▁संकेत	-10.1523
ed▁and	-10.1524
▁ಜಯ	-10.1524
▁स्वतंत्र	-10.1525
▁Thank▁you	-10.1526
▁लिंग	-10.1532
▁Nepal	-10.1534
▁ಸಮ	-10.1538
▁ಅತಿ	-10.154
▁youth	-10.1547
ಣಿ	-10.1547
देव	-10.1549
▁ताकत	-10.155
▁military	-10.1557
▁Home	-10.1559
▁same	-10.1559
▁प्रयास	-10.1561
▁ऊर्जा	-10.1562
▁अतिरिक्त	-10.1567
ನೋ	-10.1567
▁तथ्य	-10.1571
▁candidates	-10.1575
▁भारत▁का	-10.1579
▁appointed	-10.158
▁bat	-10.1582
▁ಎಲ್	-10.1582
▁speech	-10.159
▁ಬೆಂಬಲ	-10.1593
▁Later	-10.1594
▁active	-10.1595
▁visit	-10.1598
▁training	-10.1598
▁St	-10.1599
▁During▁the	-10.16
▁ಚಿತ್ರದ	-10.1601
▁Gujarat	-10.1601
▁रोक	-10.1602
▁शांति	-10.1602
▁to▁them	-10.1605
▁department	-10.1607
▁justice	-10.1607
▁the▁people	-10.1608
▁ರೈತರ	-10.1608
▁निजी	-10.1612
ai	-10.1612
▁ग्रंथ	-10.1612
▁affected	-10.1614
▁direction	-10.1622
िन	-10.1622
com	-10.1622
▁बिल	-10.1623
▁The▁Congress	-10.1623
▁final	-10.1625
▁increase	-10.1626
▁मुख़्य	-10.1627
▁भाषण	-10.1628
▁सौ	-10.1634
ಳೆ	-10.1636
▁ಕೊಟ್ಟ	-10.1637
ran	-10.1637
▁सूर्य	-10.1639
▁percent	-10.1642
▁inter	-10.1644
[	-10.1657
▁ಕಾರ್ಯದರ್ಶಿ	-10.166
▁Bharat	-10.1663
▁ನವದೆಹಲಿ	-10.1664
▁ball	-10.1664
▁कर्म	-10.1665
▁उत्तर▁प्रदेश	-10.1669
▁and▁that	-10.1672
▁भा	-10.168
▁ಮಾರ್ಗ	-10.1681
र्क	-10.169
▁becomes	-10.1697
▁the▁first▁time	-10.1698
▁हो▁जाती▁है	-10.1698
▁trial	-10.1699
ಣೆ	-10.17
▁They▁were	-10.1701
▁बनाया	-10.1701
▁ಜನರಿಗೆ	-10.1702
▁opposition	-10.1707
▁घटना	-10.1708
▁आनंद	-10.171
▁term	-10.171
▁ಕಥೆ	-10.1711
▁तब▁तक	-10.1714
▁गई	-10.1715
▁ಈಗ	-10.1719
▁address	-10.1722
▁ಸಂಗೀತ	-10.1723
ಗಳನ್ನೂ	-10.1725
▁sometimes	-10.1727
▁पि	-10.1727
▁houses	-10.1727
▁कृष्ण	-10.1728
▁जब▁तक	-10.1737
▁डी	-10.1739
▁जाने	-10.1741
▁ಕಾಣ	-10.175
ಸ್ತ	-10.1751
▁ಸರಿ	-10.1753
▁पहचान	-10.1759
▁response	-10.1759
▁computer	-10.177
▁हिंदी	-10.1772
▁where▁the	-10.1772
▁l	-10.1772
▁तकनीक	-10.1775
▁ಹಾ	-10.1775
▁that▁it	-10.1776
▁sea	-10.1782
▁violence	-10.1783
▁पृथ्वी	-10.179
▁worked	-10.1791
ating	-10.1791
▁प्रकृति	-10.1792
▁reading	-10.1793
▁साधारण	-10.1796
▁लाल	-10.1798
▁limited	-10.1802
▁Health	-10.1803
▁लेने	-10.1804
▁sound	-10.1805
ेल	-10.1806
▁activity	-10.1806
▁Google	-10.1806
▁passed	-10.1812
60	-10.1815
े▁से	-10.1817
▁Rama	-10.1818
▁authority	-10.1821
▁dance	-10.1821
▁ಯು	-10.1825
राज	-10.1825
▁ಪ್ರತಿಭಟನೆ	-10.1825
▁सकते▁है	-10.1827
tic	-10.1829
और	-10.1834
▁ಅನುಭವ	-10.1838
▁square	-10.1843
▁few	-10.1855
▁players	-10.186
▁daughter	-10.1862
▁ಎಲ್ಲಿ	-10.1865
▁Court	-10.1866
▁the▁new	-10.1867
ष	-10.1872
▁व्यवहार	-10.1874
▁मार्च	-10.1878
▁sign	-10.1881
▁Indians	-10.1884
▁वृद्धि	-10.1886
▁युवा	-10.1886
▁years▁ago	-10.1887
▁पूरी▁तरह	-10.1891
▁समाचार	-10.1891
▁Kerala	-10.1893
इन	-10.1895
▁Islamic	-10.1898
▁ಪರಿಣಾಮ	-10.1898
▁य	-10.1901
▁weight	-10.1902
▁ಸಣ್ಣ	-10.1903
▁ಅವಕಾಶ	-10.1903
▁They▁have	-10.1909
▁the▁second	-10.1911
▁मिली	-10.1912
▁Therefore	-10.1918
▁democracy	-10.1919
▁ಹಿಂದೆ	-10.1929
▁ಸಿಗ	-10.1932
▁poet	-10.1932
▁ಇಷ್ಟ	-10.1933
▁bank	-10.1934
त्व	-10.1935
▁movie	-10.1937
ಗಳಾದ	-10.1938
▁It▁is▁a	-10.1939
▁होने▁वाले	-10.1945
▁ಕೋಟಿ▁ರೂ	-10.195
सऋ	-10.1951
▁ಏ	-10.1951
▁तेल	-10.1959
▁la	-10.1963
▁चरण	-10.1964
▁Jehovahs	-10.1964
▁आत्म	-10.1964
▁of▁course	-10.1965
▁ಬಾರಿ	-10.1966
ಜಾ	-10.1966
▁learning	-10.1972
▁निकल	-10.1973
▁Gods	-10.1973
▁ಎರಡೂ	-10.1976
▁यू	-10.1978
lo	-10.1983
▁अंतरराष्ट्रीय	-10.1985
ರುವ	-10.1988
▁ಅತ್ಯುತ್ತಮ	-10.1989
▁On▁the	-10.199
▁सांस्कृतिक	-10.199
▁सत्य	-10.199
▁exercise	-10.1991
▁तल	-10.1991
हर	-10.1993
▁ಯೇಸು	-10.1994
80	-10.1996
▁और▁उन्हें	-10.1996
▁टन	-10.2001
▁ಪಡೆದ	-10.2002
▁going▁to	-10.2002
ಟಾ	-10.2007
नीय	-10.2008
ಭ	-10.2017
▁बढ	-10.2021
ಬ್ಬ	-10.2021
न्तु	-10.2022
land	-10.2023
▁impact	-10.2024
▁generation	-10.2024
▁ಬಿಡ	-10.2025
▁Par	-10.2026
▁War	-10.2026
▁didn	-10.2029
▁की▁थी	-10.2031
▁size	-10.2031
ಿಕೆ	-10.2034
▁tradition	-10.2035
ಖ	-10.2037
▁ಉಳಿದ	-10.204
con	-10.2043
▁विद्वान	-10.2044
▁पुत्र	-10.2045
▁होती	-10.2047
▁forward	-10.2048
▁प्रदेश	-10.2053
▁ಅರ್ಜಿ	-10.2053
▁संग्रह	-10.2056
▁प्रकार▁के	-10.2056
▁Also	-10.2057
ally	-10.2058
▁application	-10.2059
ओं▁के	-10.206
▁बिल्कुल	-10.2061
▁ವಿರಾಟ್▁ಕೊಹ್ಲಿ	-10.2061
▁Ali	-10.2061
▁जमीन	-10.2061
▁scheme	-10.2063
▁a▁single	-10.2064
▁विजय	-10.2065
▁strength	-10.2067
▁meet	-10.2075
▁की▁गई	-10.2076
ಸ್ಟ್	-10.2078
ಾದರೂ	-10.2078
▁पड़	-10.2078
▁Ex	-10.2079
▁तरह	-10.2079
▁ಪಂದ್ಯ	-10.2079
▁speak	-10.208
क्ष	-10.2086
▁होते	-10.2088
▁Kashmir	-10.209
▁truth	-10.2091
▁effort	-10.2095
▁ಇರಲಿಲ್ಲ	-10.2097
▁neither	-10.2098
ನಾನು	-10.2103
ists	-10.2104
▁याद	-10.2105
▁ಮೊ	-10.2105
▁आजादी	-10.2105
▁lack	-10.2106
▁return	-10.2114
▁ಜಿಲ್ಲಾ	-10.2116
▁सौर	-10.2122
▁reasons	-10.2126
▁ಯೆಹೋವನು	-10.2129
▁किस	-10.2133
▁laws	-10.2133
▁माता	-10.2133
ೇನು	-10.2134
▁poetry	-10.2139
ki	-10.214
tri	-10.2143
ात	-10.2158
▁ಸೂಕ್ತ	-10.216
ियों▁की	-10.2163
▁like▁a	-10.2164
▁ಹಾಕಿ	-10.2165
▁जाये	-10.2166
▁साफ	-10.2172
▁शिखर	-10.2172
▁details	-10.2174
▁चर्चा	-10.2174
▁जिनक	-10.2175
▁earth	-10.2175
▁prepared	-10.2177
ಿಸಿದ	-10.2179
▁He▁had	-10.2179
▁साधन	-10.2181
▁सहयोग	-10.2187
ow	-10.219
▁secret	-10.2194
▁senior	-10.2195
▁पुराने	-10.2196
▁physical	-10.2199
▁murder	-10.22
▁remain	-10.2202
▁hands	-10.2203
▁तर्क	-10.2204
▁खान	-10.2204
८	-10.2205
30	-10.2207
▁Her	-10.2208
▁pressure	-10.2209
▁season	-10.2209
▁सकें	-10.2209
ದಲ್ಲೇ	-10.2212
▁संपूर्ण	-10.2214
▁ಮಾತನಾಡ	-10.2216
▁directly	-10.2219
▁ಮುಂಬೈ	-10.222
▁spent	-10.2222
▁पदार्थ	-10.2228
▁%	-10.2228
▁गु	-10.2231
▁supply	-10.2234
ಷ್	-10.2236
ದ▁ಮೇಲೆ	-10.2236
सर	-10.2236
▁ಬಣ್ಣ	-10.2238
▁कल्पना	-10.224
▁Le	-10.2242
▁moral	-10.2244
▁पुरस्कार	-10.2245
▁ಕೂಡಲೇ	-10.2249
▁After▁the	-10.2254
▁ಮುಖ	-10.2256
▁और▁अन्य	-10.2257
▁ತಪ್ಪ	-10.2257
▁ಅವನಿಗೆ	-10.226
▁कि▁आप	-10.2266
▁ಪ್ರಯತ್ನ	-10.2279
▁सम्मान	-10.2285
स्थ	-10.2287
म्	-10.229
▁the▁following	-10.2292
▁ಚಾ	-10.2293
▁There▁is▁a	-10.2301
▁the▁problem	-10.2303
▁for▁example	-10.2305
▁खरीद	-10.2305
ಿದರೆ	-10.2306
▁Article	-10.2309
▁remains	-10.2309
ಎಂ	-10.2309
▁समाप्त	-10.231
▁ही▁है	-10.2311
▁Such	-10.2312
▁complaint	-10.2313
▁citizens	-10.2314
यों	-10.2315
▁central	-10.2318
▁ಶಾ	-10.2323
▁ದೇವ	-10.2325
▁mentioned	-10.2327
▁w	-10.2332
▁people▁who	-10.2336
▁ಮಾಡಲಾಗಿದೆ	-10.2336
▁देती▁है	-10.2337
▁वायु	-10.2348
▁manner	-10.2351
▁हि	-10.2353
▁लोगों▁के	-10.2356
▁गांव	-10.2359
▁पश्चिम	-10.2361
▁contact	-10.2364
▁method	-10.2365
ite	-10.2365
▁उत्तरी	-10.2367
▁बढ़ा	-10.2371
▁और▁उसे	-10.2371
▁Tamil	-10.2373
▁sense	-10.2373
रत	-10.2376
▁courts	-10.2378
▁reached	-10.2381
ाव	-10.2381
over	-10.2382
▁समर्थन	-10.2384
▁stop	-10.2389
▁if▁the	-10.2389
▁ಆರೋಪಿ	-10.239
▁as▁an	-10.2391
▁हृदय	-10.2395
▁ನನ್ನನ್ನು	-10.24
▁जांच	-10.2401
▁authorities	-10.2401
▁ताजमहल	-10.2401
▁पत्थर	-10.2403
▁जि	-10.2408
▁form▁of	-10.2413
ಹಿ	-10.2413
▁add	-10.2416
▁ಕೃಷಿ	-10.2422
▁रन	-10.2425
▁ask	-10.2427
▁सर्वोच्च	-10.2429
न्	-10.2432
▁content	-10.2432
▁सामने	-10.2436
▁you▁are	-10.2436
▁News	-10.2437
▁in▁the▁case	-10.2437
▁भू	-10.2438
▁3.	-10.2441
▁safe	-10.2445
▁issued	-10.2445
Q	-10.245
▁late	-10.2453
▁products	-10.2453
▁Yes	-10.2453
▁लेख	-10.2455
▁There▁was	-10.2456
▁The▁BJP	-10.2463
▁of▁any	-10.2464
▁शक़्ति	-10.2464
▁लेखक	-10.2465
▁playing	-10.247
▁संशोधन	-10.247
▁families	-10.2471
ence	-10.2471
<	-10.2474
▁किये	-10.2474
▁global	-10.2475
▁understand	-10.2478
▁the▁right	-10.2478
▁basic	-10.248
▁उपबंध	-10.248
था	-10.2483
▁)▁.	-10.2487
▁ಹಿ	-10.2487
▁ವೇಳೆ	-10.2487
▁और▁वे	-10.2488
ಸಾ	-10.249
ಬೇಕಿದೆ	-10.2494
▁Bar	-10.2495
MP	-10.2495
▁पसंद	-10.2495
▁देवी	-10.2496
▁km	-10.2497
▁to▁say	-10.25
▁were▁not	-10.2501
▁that▁are	-10.2502
▁organisation	-10.2504
▁करने▁में	-10.2504
ಿಕೊಳ್ಳ	-10.2506
▁key	-10.2509
▁die	-10.2516
▁of▁them	-10.2517
▁करने▁के	-10.2517
▁ದೇಶದಲ್ಲಿ	-10.252
मु	-10.2527
▁European	-10.2528
▁r	-10.2531
▁सुंदर	-10.2532
▁दिया▁है	-10.2533
▁33	-10.2535
▁colour	-10.2537
फ़	-10.2537
▁shared	-10.2539
▁town	-10.2544
tra	-10.2548
मात्र	-10.2556
▁directed	-10.2557
▁the▁film	-10.2564
▁in▁Delhi	-10.2565
▁ने▁अपने	-10.2571
ಕು	-10.2576
▁पता	-10.2577
▁alleged	-10.2579
▁within▁the	-10.2582
▁recent	-10.2582
▁ಎಚ್	-10.2584
▁a▁little	-10.2587
▁ಮಹ	-10.2588
ಲು▁ಸಾಧ್ಯವಿಲ್ಲ	-10.2588
▁ಹೇಳಿಕೆ	-10.2591
▁चाहिए	-10.2591
▁ಅಂದರೆ	-10.2592
ತ್ವ	-10.2593
▁prices	-10.2595
▁and▁also	-10.2595
▁New▁Delhi	-10.2596
X	-10.2597
▁ಬೈಕ್	-10.2601
▁And▁I	-10.2603
▁accident	-10.2611
तया	-10.2612
▁से▁लेकर	-10.2615
50	-10.2616
▁want▁to	-10.2617
like	-10.2621
ಿಸಿದರು	-10.2623
िय	-10.2623
po	-10.2623
ಸನ್	-10.2624
▁ಮಾಡಬೇಕು	-10.2626
▁Co	-10.2629
▁ministry	-10.2629
▁प्रदर्शन	-10.2629
▁जनवरी	-10.2629
▁विषय	-10.263
▁train	-10.2632
▁मात्रा▁में	-10.2635
▁दंड	-10.2641
▁feet	-10.2643
▁equal	-10.2645
▁ವರ್ಷ	-10.2647
ಬೆ	-10.265
▁paper	-10.2653
▁event	-10.2655
▁rich	-10.2656
▁कश्मीर	-10.2663
हँसी	-10.2673
▁fall	-10.2676
▁lead	-10.2689
▁पार	-10.2689
▁ಈ▁ಸಂಬಂಧ	-10.2689
▁leadership	-10.2691
▁benefit	-10.2693
ನನ್ನು	-10.2694
ही	-10.2695
▁ಪರೀಕ್ಷೆ	-10.2701
▁property	-10.2709
ಾಡ	-10.2709
▁didnt	-10.2711
▁ಹೊಂದ	-10.2712
▁in▁that	-10.2716
▁मंडप	-10.272
▁wide	-10.2732
ga	-10.2734
▁ನಂಬ	-10.2741
वास	-10.2743
▁ಮನೆಯಲ್ಲಿ	-10.2744
▁revolution	-10.2745
aj	-10.2747
▁writer	-10.2748
ियों▁का	-10.2749
▁Ni	-10.2749
▁गयी	-10.2751
▁और▁इस	-10.2751
▁आदेश	-10.2757
▁”▁.	-10.2758
▁गा	-10.2759
▁ಅವುಗಳ	-10.276
▁तो▁वह	-10.2761
▁to▁me	-10.2762
▁ಸಭೆ	-10.2763
▁सामान	-10.2765
▁ರೋಗ	-10.2765
▁ಪ್ರಕ್ರಿಯೆ	-10.277
▁के▁ऊपर	-10.277
mi	-10.277
▁ಪ್ರಧಾನ	-10.2771
ಚ್ಚ	-10.2771
▁married	-10.2777
▁१५	-10.2779
ship	-10.2782
न्त	-10.2783
▁न्यायाधीश	-10.2784
▁in▁all	-10.2786
▁75	-10.2786
▁ब्राह्मण	-10.2787
▁शिकायत	-10.2787
▁ಇಂಥ	-10.2788
▁बैंक	-10.2788
▁average	-10.2791
▁चीज़	-10.2791
▁scientific	-10.2791
▁ढंग▁से	-10.2792
▁लगे	-10.2793
▁officers	-10.2796
▁subject	-10.2798
▁सन	-10.2801
▁जारी	-10.2802
सं	-10.2803
▁Paul	-10.2803
▁Congress▁leader	-10.2807
▁और▁मैं	-10.2809
▁ಆತ	-10.2809
▁with▁his	-10.2811
▁height	-10.2812
▁ಬಿಡುಗಡೆ	-10.2813
▁came▁to	-10.2815
▁points	-10.2817
▁के▁समान	-10.2819
ಿಂಗ್	-10.2825
▁thousand	-10.2826
▁एक▁दूसरे	-10.283
ी▁का	-10.283
▁There▁were	-10.284
▁launched	-10.2841
▁ಪೂರ್ವ	-10.2842
▁female	-10.2844
ಸ್ಥ	-10.2846
▁शामिल	-10.2846
▁नहीं▁थी	-10.2851
▁बै	-10.2852
मे	-10.2856
बद्ध	-10.2857
▁कम▁से▁कम	-10.2858
tal	-10.2859
▁संरक्षण	-10.2867
▁ಇವೆ	-10.2868
▁किए	-10.2871
ತು	-10.2871
▁mobile	-10.2875
ib	-10.2877
तऋ	-10.2881
▁ಸಂತೋಷ	-10.2882
▁attention	-10.2883
▁से▁एक	-10.2884
▁दिख	-10.2885
)▁(	-10.2886
▁टी	-10.289
▁damage	-10.2892
▁in▁Mumbai	-10.2896
▁City	-10.2899
▁तरीके▁से	-10.2902
ना▁होगा	-10.2902
▁ಸಾರ್ವಜನಿಕ	-10.2903
▁duty	-10.2906
▁ಯಾವುದು	-10.2911
▁importance	-10.2911
▁अपील	-10.2915
▁4.	-10.2915
▁अंत	-10.2917
▁unto	-10.2917
▁efforts	-10.2917
▁एन	-10.2919
ी▁ने	-10.2919
▁पकड़	-10.2921
▁अब▁तक	-10.2921
ोल	-10.2922
▁ಎಂದು▁ಹೇಳಿದ್ದಾರೆ	-10.2922
▁successful	-10.2922
▁बच्चों	-10.2927
▁similar	-10.2928
az	-10.2929
▁ಆದರೆ▁ಈ	-10.2929
ನಿಗೆ	-10.2931
▁साथ	-10.2932
▁correct	-10.2937
▁opinion	-10.2943
▁ध	-10.2943
ಷ್ಟು	-10.2945
▁जिन्होंने	-10.2946
▁Car	-10.2947
▁लगता▁है	-10.2948
मेंट	-10.2948
▁tried▁to	-10.2948
ಬೇಕಾಗಿದೆ	-10.2949
▁Prasad	-10.296
▁Lord	-10.296
gi	-10.2962
ओं▁का	-10.2968
▁songs	-10.2969
▁degree	-10.297
▁अनुमति	-10.297
▁kind	-10.2972
▁कभी▁कभी	-10.2973
▁connection	-10.2977
ಯಲ್ಲಿ▁ಪ್ರಕರಣ▁ದಾಖ	-10.2979
▁लड़	-10.2986
▁साम्राज्य	-10.2987
▁ಲಾಭ	-10.2987
▁specific	-10.2988
▁ಕಾರ್ಯಕ್ರಮದಲ್ಲಿ	-10.299
▁bring	-10.2996
▁ಕೊ	-10.2997
▁किए▁गए	-10.2997
▁ಉಪಸ್ಥಿತರಿದ್ದರು	-10.2999
▁saw	-10.3
▁circumstances	-10.3001
ಿರ	-10.3001
▁is▁one▁of▁the	-10.3002
▁ಸಾಮಾನ್ಯವಾಗಿ	-10.3004
▁shape	-10.3006
ने▁वाला	-10.3012
▁करोड़	-10.3017
▁each▁other	-10.3021
▁संख़्या	-10.3024
▁talk	-10.3027
▁ಬದಲಾವಣೆ	-10.3028
ck	-10.3028
▁विशेष▁रूप▁से	-10.3034
▁caused	-10.3034
ಹಾ	-10.3039
▁ಹೆಚ್ಚ	-10.304
र्म	-10.3041
▁style	-10.3044
ಗಳೊಂದಿಗೆ	-10.3045
ाकार	-10.3048
▁पो	-10.3049
▁protection	-10.305
▁traffic	-10.3051
▁के▁संबंध	-10.3052
▁ಅಧಿಕಾರ	-10.3055
▁ರಿ	-10.3055
▁जिनके	-10.3056
▁matches	-10.3056
▁बाग	-10.3056
ಂಟ	-10.3057
▁ಸಮಯದಲ್ಲಿ	-10.3057
▁पहुंच	-10.3058
▁होने▁का	-10.3062
▁संसदीय	-10.3062
▁ಸರ್ಕಾರದ	-10.3063
ex	-10.3064
▁हिमालय	-10.3069
▁centre	-10.3071
ious	-10.3073
▁ಇತ್ತು	-10.3074
ता▁हूँ	-10.3074
▁वर्णन	-10.3075
▁development▁of	-10.3075
▁section	-10.3075
▁ಆಕೆ	-10.3076
een	-10.3078
▁ಸೈ	-10.3078
▁returned	-10.308
ने▁के▁लिये	-10.308
▁बहुत▁कम	-10.3082
ಕ್ಷ	-10.3083
▁ಆತನು	-10.3085
ble	-10.3091
▁Test	-10.3091
▁San	-10.3092
करण	-10.3092
▁at▁home	-10.3093
▁मैच	-10.3101
▁दूध	-10.3108
ವಿನ	-10.3109
▁बो	-10.311
▁Work	-10.3111
९	-10.3112
▁ಕ್ಷೇತ್ರ	-10.3115
▁Women	-10.3115
▁Yet	-10.3116
▁text	-10.3119
▁risk	-10.3119
▁allowed	-10.3119
▁proper	-10.3125
▁sleep	-10.3125
ತೆಯ	-10.313
▁independent	-10.3131
▁ಎಂದು▁ಅವರು	-10.3134
ning	-10.3136
▁at▁all	-10.314
em	-10.314
ile	-10.3143
ba	-10.3144
▁east	-10.3145
▁and▁is	-10.3145
▁ಸೇರಿಸಿ	-10.3147
our	-10.3147
iv	-10.3148
▁a▁lot	-10.3149
▁नौ	-10.3149
▁मुल्क	-10.3149
­	-10.3149
▁ಆರಂಭಿಸ	-10.3149
▁performance	-10.315
▁names	-10.3151
▁bill	-10.3153
▁पूर्वी	-10.3153
▁आमतौर▁पर	-10.3154
▁तत्व	-10.3154
▁ವಿಡಿಯೋ	-10.3155
▁आयोग	-10.3155
ಿಸಲು	-10.3157
▁race	-10.3157
▁ಆಕೆಯ	-10.3168
ure	-10.3173
▁fully	-10.3175
▁बि	-10.3176
▁ನಂಬಿಕೆ	-10.3178
▁क्रम	-10.318
▁बर	-10.3182
▁शैली	-10.3183
▁Ar	-10.3185
यी	-10.3187
सन	-10.3188
▁Po	-10.3193
▁प्रारंभ	-10.3198
▁Q	-10.3203
▁संस्था	-10.3204
▁And▁so	-10.3205
▁father	-10.3206
▁का▁भी	-10.321
▁brother	-10.3211
▁of▁the▁people	-10.3211
▁प्रकार	-10.3216
▁announced	-10.3216
wa	-10.3216
▁कदम	-10.322
▁It▁is▁not	-10.3221
▁a▁big	-10.3221
▁से▁पहले	-10.3231
▁अंतर्राष्ट्रीय	-10.3231
▁Basava	-10.3232
▁लगातार	-10.3233
▁ban	-10.3236
▁forest	-10.3236
▁ಬೇಕು	-10.3237
▁,▁“	-10.3241
देश	-10.3241
▁आशा	-10.3242
▁completed	-10.3243
▁sector	-10.3245
▁increasing	-10.3245
ಯ್ಯ	-10.3245
▁कल	-10.3248
▁Th	-10.3252
▁वहीं	-10.3254
ड़ा	-10.3257
▁ha	-10.3257
▁४	-10.3259
ढ़	-10.326
▁क्षेत्रों▁में	-10.3263
▁concerned	-10.3263
▁month	-10.3263
▁registered	-10.3264
▁के▁खिलाफ	-10.3265
▁ಇಲ್ಲಿದೆ	-10.3266
▁ब्र	-10.327
▁followed	-10.327
▁ಪೊಲೀಸ್▁ಠಾಣೆ	-10.3273
▁ಹಿರಿಯ	-10.3273
▁के▁अलावा	-10.3273
▁इं	-10.3275
▁that▁you	-10.3278
▁April	-10.3278
▁In▁fact	-10.3279
▁सक्रिय	-10.3279
▁ಹೌದು	-10.3281
पूर्वक	-10.3283
▁week	-10.3289
▁Germany	-10.329
ay	-10.329
▁ಇನ್	-10.3295
▁mis	-10.3301
▁ಪ್ರಮಾಣ	-10.3304
▁unit	-10.3306
▁अंग्रेज	-10.3309
▁Secretary	-10.3309
ಗೊಂಡ	-10.3309
▁its▁own	-10.3309
ುತ್ತಿತ್ತು	-10.3311
▁the▁beginning	-10.3311
▁की▁जाती▁है	-10.3315
ाना	-10.3316
▁और▁भी	-10.3318
ama	-10.3322
▁judge	-10.3324
▁enjoy	-10.3324
▁it▁has	-10.3325
▁स्वरूप	-10.3326
▁na	-10.3329
▁.▁.▁..	-10.3329
▁ja	-10.333
▁बेच	-10.3331
▁संदेश	-10.3332
ಳಿ	-10.3334
▁पहली▁बार	-10.3334
▁ಫಲಿತಾಂಶ	-10.3335
▁ವಿಮಾನ	-10.3335
▁लोकप्रिय	-10.334
way	-10.334
वर्ती	-10.334
▁ಸೆ	-10.3341
▁kingdom	-10.3345
red	-10.3347
▁ಎಲ್ಲವೂ	-10.3348
▁Ne	-10.3354
lu	-10.3355
▁School	-10.3356
▁economy	-10.3356
▁charge	-10.3357
▁विस्तृत	-10.3359
▁मी	-10.336
▁अमेरिकी	-10.3361
▁positive	-10.3362
▁competition	-10.3366
ಷ್ಟ	-10.3369
▁आत्मा	-10.3372
▁नहीं▁होता	-10.3373
▁और▁अधिक	-10.3373
▁गीत	-10.3374
▁ವಿಧಾನ	-10.3375
▁Special	-10.3376
pe	-10.3379
▁expressed	-10.3379
▁ಜಿಲ್ಲೆಯ	-10.338
▁se	-10.338
ice	-10.3382
ಿಸಿದ್ದಾರೆ	-10.3385
▁का▁प्रयोग	-10.3387
▁informed	-10.3387
▁These▁are	-10.3388
ಬೇಕಾದ	-10.3393
▁like▁this	-10.3397
▁judges	-10.3398
▁agriculture	-10.3399
▁staff	-10.3399
▁on▁the▁occasion	-10.3405
▁इस▁पर	-10.3407
ion▁of	-10.3407
▁250	-10.3407
bi	-10.3409
ನೆಯ	-10.341
ny	-10.341
त्	-10.3411
▁ಪ್ರಯೋಜನ	-10.3415
ಕೊಂಡ	-10.3415
▁sc	-10.3417
▁केंद्रीय	-10.3419
oo	-10.3423
ोर	-10.3425
▁ಕ್ರಿಕೆಟ್	-10.3425
▁चीज	-10.3426
▁press	-10.3426
▁powerful	-10.343
▁असर	-10.3435
▁ಸಲ್ಲಿಸ	-10.3437
▁brain	-10.3441
▁running	-10.3442
▁simply	-10.3442
du	-10.3442
▁सरल	-10.3443
▁ಆತ್ಮಹತ್ಯೆ	-10.3444
▁ಬೇ	-10.3445
▁1999	-10.3449
▁दुनिया▁में	-10.3449
▁hearing	-10.3451
ता▁और	-10.3454
▁ಶಿ	-10.3455
ung	-10.3455
aa	-10.3459
यें	-10.3459
▁काट	-10.346
▁Ra	-10.346
▁green	-10.3461
▁cr	-10.3463
ash	-10.3466
▁ಬಳಕೆ	-10.3468
op	-10.347
▁बाकी	-10.3474
▁and▁we	-10.3475
▁moved	-10.3475
▁Cricket	-10.3475
▁whom	-10.3476
▁ಚುನಾವಣೆಯಲ್ಲಿ	-10.3478
▁challenge	-10.3479
▁huge	-10.348
े▁हैं	-10.3481
▁विकेट	-10.3483
▁क्या▁है	-10.3483
▁husband	-10.3486
▁के▁दो	-10.3487
▁ತು	-10.3487
▁joint	-10.3491
▁Amit▁Shah	-10.3491
▁ಭಾಷೆ	-10.3491
var	-10.3492
▁संसार	-10.3494
▁Bangalore	-10.3495
▁अधिकतर	-10.3496
▁board	-10.35
ियन	-10.3501
▁March	-10.3501
▁ಉದ್ಯೋಗ	-10.3502
▁And▁the	-10.3504
▁ಕಂಡ	-10.3509
▁हार	-10.3511
▁ಅವ	-10.3512
▁fort	-10.3514
gistered▁a▁case	-10.3518
▁conduct	-10.3518
ದೊಂದಿಗೆ	-10.3521
▁shown	-10.3521
▁मामले	-10.3522
▁ಫೋಟೋ	-10.3523
▁Da	-10.3523
ी▁को	-10.3523
▁stay	-10.3524
▁But▁that	-10.3525
▁ಆದ್ರೆ	-10.3526
ी▁हुई	-10.3527
▁स्	-10.3528
▁Water	-10.3528
▁ज्यादातर	-10.353
▁मैने	-10.3532
▁ಹಾಗೆಯೇ	-10.3533
▁dry	-10.3539
▁ತಪ್ಪು	-10.3539
▁ಕ್ಯಾ	-10.3544
▁ರಾಮ	-10.3546
▁ಕೋ	-10.3547
▁भूमिका	-10.355
of	-10.3551
▁of▁the▁Indian	-10.3551
ing▁to	-10.3552
▁ಕಾರ್	-10.3555
ने▁लगे	-10.3557
▁पाँच	-10.3558
▁डे	-10.3558
▁कविता	-10.3561
▁ಮರು	-10.3563
▁need▁to	-10.3564
▁ने▁कहा	-10.3565
▁I▁had	-10.3568
▁लाख▁टन	-10.3569
▁ತೆರಿಗೆ	-10.357
eth	-10.3574
▁\	-10.3574
मि	-10.3576
▁Mu	-10.3578
▁standard	-10.3579
▁that▁I	-10.358
▁dont	-10.358
▁ಹೆ	-10.358
▁ತೆಗೆದುಕೊಳ್ಳ	-10.3581
▁so▁much	-10.3583
▁Bombay	-10.3584
▁the▁party	-10.3585
▁connected	-10.3585
▁ten	-10.3587
रि	-10.3588
▁is▁in	-10.3588
▁फैला	-10.3592
▁ನಿಯಮ	-10.3593
▁path	-10.3596
▁India▁is	-10.3597
ಿನಿಂದ	-10.3601
▁conflict	-10.3602
▁मां	-10.3606
▁the▁court	-10.3607
ಂಥ	-10.3608
▁2001	-10.3609
▁Three	-10.3612
▁ऑ	-10.3612
ca	-10.3615
▁when▁you	-10.3617
▁ಭೇಟಿ	-10.3622
▁and▁not	-10.3624
▁o	-10.3625
▁होने▁पर	-10.3626
▁send	-10.3628
ा▁गया	-10.3628
ನಾದ	-10.3628
gu	-10.363
े▁पर	-10.363
▁ಮಾತು	-10.3631
mo	-10.3632
▁ಭೂ	-10.3636
▁ಮಾತ	-10.3636
ा▁और	-10.3639
▁दिये	-10.364
▁मुगल	-10.364
यर	-10.3642
▁a▁number▁of	-10.3643
▁आसान	-10.3644
▁example	-10.3645
▁सड़क	-10.3645
▁होते▁है	-10.3645
▁ಶಾಲೆ	-10.3647
▁ಜೋ	-10.3649
▁पर्यावरण	-10.3654
▁प्रशिक्षण	-10.3654
▁For▁example	-10.3656
▁ದಾಳಿ	-10.366
टे	-10.366
ಲ್ಲೇ	-10.3661
▁समस्याओं	-10.3662
▁agreed	-10.3662
▁par	-10.3663
▁Kar	-10.3664
▁result	-10.3668
▁करेगा	-10.3668
▁ಡೆ	-10.3668
▁captain	-10.3671
▁results	-10.3673
▁चुन	-10.3675
▁औसत	-10.3677
▁Add	-10.3678
▁आउट	-10.368
nagar	-10.368
▁joy	-10.3682
ಗಾರ	-10.3682
▁इमारत	-10.3687
▁ಸಾಮಾಜಿಕ	-10.3693
▁ಮಾದರಿ	-10.3693
डा	-10.3694
▁कंप्यूटर	-10.3697
▁rock	-10.3699
▁और▁जो	-10.37
▁website	-10.37
▁probably	-10.37
जे	-10.3701
▁management	-10.3702
ಬಾ	-10.371
▁परन्तु	-10.3713
दर	-10.3713
▁events	-10.3713
▁shall▁be	-10.3716
▁slow	-10.3719
▁ಸಂದರ್ಭದಲ್ಲಿ	-10.372
▁देवता	-10.3721
▁majority	-10.3721
▁Day	-10.3723
▁is▁very	-10.373
▁sit	-10.3732
▁उस▁पर	-10.3736
▁contain	-10.3738
▁mouth	-10.3741
▁कबीर	-10.3741
▁ಪಟ್ಟಿ	-10.3743
▁बह	-10.3748
▁provides	-10.3749
▁course	-10.3749
▁some▁of▁the	-10.3751
▁organised	-10.3751
▁to▁it	-10.3753
gar	-10.3753
▁he▁has	-10.3753
▁of▁that	-10.3755
▁प्रचार	-10.3757
▁2007	-10.3759
▁types	-10.376
▁असली	-10.3762
▁ಅಂತಹ	-10.3763
▁आती▁है	-10.3764
▁caste	-10.3765
tion	-10.3769
▁ಇಲಾಖೆ	-10.377
▁बनी	-10.377
▁किताब	-10.3772
▁link	-10.3772
▁नव	-10.3775
▁ಅಗತ್ಯವಿದೆ	-10.3777
▁निर्देश	-10.3777
▁easily	-10.3782
▁the▁President	-10.3782
▁and▁others	-10.3783
हार	-10.3784
▁करते▁है	-10.3784
▁equipment	-10.3785
▁ಮಹಿಳಾ	-10.3785
▁ಯಾವಾಗಲೂ	-10.3786
▁में▁यह	-10.3786
▁अति	-10.3794
▁to▁help	-10.3796
▁ಗುರಿ	-10.3804
ium	-10.3805
▁आए	-10.3807
▁appeal	-10.3808
▁अत	-10.3808
▁शाखा	-10.381
▁Jo	-10.3813
▁arrest	-10.3815
▁male	-10.3819
▁ಮೈ	-10.3827
▁heavy	-10.3828
▁Besides	-10.3829
▁ಎಂದು▁ತಿಳಿಸಿದರು	-10.3833
▁shows	-10.3834
▁I▁think	-10.3834
शाली	-10.3834
एन	-10.3835
▁ಸೇರಿ	-10.3837
▁हो▁सकते▁हैं	-10.3839
les	-10.3839
▁forces	-10.3841
▁learn	-10.3842
▁शेष	-10.3843
▁ಒಂದ	-10.3849
▁कि▁हम	-10.3849
▁दिया▁जाता▁है	-10.3851
▁ಇದೊಂದ	-10.3851
तभी	-10.3852
▁Commissioner	-10.3854
▁मानते▁हैं	-10.3858
्म	-10.3859
▁मास	-10.3859
▁कथा	-10.3865
▁May	-10.3865
▁बातचीत	-10.3867
▁ಪ್ರಧಾನಿ▁ಮೋದಿ	-10.387
▁धन्यवाद	-10.387
▁ಅವಳು	-10.3872
▁sugar	-10.3872
uk	-10.3873
▁Quran	-10.3874
एम	-10.3875
▁ಹಾಗು	-10.3878
▁ನಡೆದಿದೆ	-10.3881
▁MP	-10.3882
शील	-10.3885
्यू	-10.3889
▁ಸಹಕಾರ	-10.389
ಾಗಿದೆ	-10.3891
▁of▁it	-10.3892
▁rivers	-10.3895
ರಾಗಿದ್ದಾರೆ	-10.3895
▁आये	-10.3895
▁उदाहरण▁के▁लिए	-10.3898
ता▁से	-10.3902
ard	-10.3905
▁Vi	-10.3906
▁पहुँच	-10.3911
▁a▁large	-10.3912
▁moment	-10.3912
▁1950	-10.3913
▁you▁know	-10.3915
▁ಬಸ್	-10.3918
▁Ad	-10.3922
▁सफल	-10.3923
जनक	-10.3924
ಂಟ್	-10.3926
▁Today	-10.3927
▁ಬೈಬಲ್	-10.393
▁नाटक	-10.3937
ಮಾನ	-10.3939
▁additional	-10.3939
▁feature	-10.3942
▁ಸಂಸ್ಥೆಯ	-10.3948
▁शोध	-10.395
▁पल	-10.395
▁measures	-10.3953
ುವುದಾಗಿ	-10.3955
▁resources	-10.3959
▁If▁the	-10.3961
▁1947	-10.3962
▁budget	-10.3963
▁dream	-10.3963
ಂಗ್	-10.3964
▁लिये	-10.3967
25	-10.3968
▁ಜತೆ	-10.3969
▁seat	-10.3969
▁दृश्य	-10.397
ಿಸಲಾಗಿದೆ	-10.3975
▁मि	-10.3977
▁अगले	-10.3978
▁ವ್ಯಕ್ತಪಡಿಸ	-10.398
▁फल	-10.3981
▁believe	-10.3984
▁heat	-10.3988
▁Sharma	-10.3989
ಲ್ಲಾ	-10.3991
▁Am	-10.3994
▁spot	-10.3996
▁Lo	-10.3996
ಿಕೊಂಡ	-10.3999
▁helped	-10.3999
ip	-10.4
▁रु	-10.4004
▁अतिरिक़्त	-10.4006
▁Dur	-10.4011
रण	-10.4014
ner	-10.4015
▁cooperation	-10.4016
ियों▁ने	-10.4019
▁ನಡೆಯುತ್ತಿದೆ	-10.4025
▁solution	-10.4026
▁agree	-10.4028
▁felt	-10.4028
▁included	-10.403
▁the▁truth	-10.4031
11	-10.4032
▁America	-10.4034
▁पशु	-10.4039
▁flow	-10.4039
▁Europe	-10.4044
s▁who	-10.4045
▁check	-10.4049
▁the▁ball	-10.4049
▁facilities	-10.4051
▁primary	-10.4051
▁victory	-10.4051
▁ಭಾರತಕ್ಕೆ	-10.4051
▁hair	-10.4052
by	-10.4055
▁34	-10.4061
▁And▁that	-10.4061
▁करवा	-10.4062
▁रक्त	-10.4062
▁try	-10.4066
▁has▁to▁be	-10.4067
▁क्रांति	-10.407
▁ವಹಿಸ	-10.4071
▁की▁आवश्यकता	-10.4071
tro	-10.4073
▁doesn	-10.4073
▁watch	-10.4076
▁होता▁था	-10.4082
▁ಆರಂಭ	-10.4083
▁मह	-10.4089
ವಾಗಿರುವ	-10.4091
all	-10.4091
▁beauty	-10.4096
▁मित्र	-10.4097
▁पंजाब	-10.4099
▁review	-10.4101
बल	-10.4103
▁set▁up	-10.4103
▁ಓದಿ	-10.4107
▁defence	-10.4108
▁आपका	-10.4109
▁agreement	-10.411
▁incident	-10.4114
▁पद्धति	-10.4121
▁मई	-10.4121
ಫ	-10.4122
▁प्यार	-10.4123
▁की▁स्थापना	-10.4125
▁a▁very	-10.4127
99	-10.4129
▁लिखा	-10.413
▁थ	-10.4131
▁बीमारी	-10.4133
▁mere	-10.4138
▁ಕರೆ	-10.4139
▁ಆತಂಕ	-10.4142
▁I▁dont	-10.4146
▁होने▁के▁कारण	-10.4149
▁camera	-10.4149
▁ಹೋರಾಟ	-10.415
▁मीडिया	-10.415
▁वंश	-10.4151
▁एच	-10.4157
▁मजबूत	-10.4158
▁current	-10.4158
▁प्रतिक्रिया	-10.4164
▁aid	-10.4164
▁opportunity	-10.4165
▁में▁से	-10.4166
ವರ್	-10.4169
▁governments	-10.417
▁west	-10.4171
▁States	-10.4173
▁एक▁साथ	-10.4174
for	-10.4178
ंगी	-10.4183
·	-10.4187
▁ಪ್ರಧಾನಿ▁ನರೇಂದ್ರ	-10.4187
▁nine	-10.4188
▁कमजोर	-10.4189
▁ದಕ್ಷಿಣ	-10.4199
▁वाला	-10.42
ಟರ್	-10.4201
▁network	-10.4202
▁आयात	-10.4203
▁विदेश	-10.4204
▁what▁is	-10.4204
▁ಅಭ್ಯರ್ಥಿ	-10.4208
▁Centre	-10.4209
ಾರ	-10.4209
▁cast	-10.421
▁हल	-10.4211
▁ನಿರ್ಮಿಸ	-10.422
▁trust	-10.422
▁सबसे▁अधिक	-10.4221
▁understanding	-10.4223
▁unity	-10.4223
ಶಾ	-10.4225
▁animal	-10.4226
▁ಕೆಲ	-10.4228
▁से▁भी	-10.423
▁placed	-10.4231
▁ಸರ್ವ	-10.4231
▁Temple	-10.4232
▁सप्ताह	-10.4233
▁About	-10.4233
▁अनुवाद	-10.4233
▁Development	-10.4238
▁ಚಿತ್ರದಲ್ಲಿ	-10.4242
▁अली	-10.4242
▁extreme	-10.4243
▁Christians	-10.4244
ative	-10.4245
▁villages	-10.4246
▁appropriate	-10.4247
▁Education	-10.4251
▁Di	-10.4252
▁ministers	-10.4254
▁shot	-10.4257
▁कठिन	-10.4258
▁घट	-10.4258
ವೆಂದು	-10.4264
रू	-10.4264
ಜೆ	-10.4266
▁shrine	-10.4267
▁of▁people	-10.4272
▁there▁was▁no	-10.4278
▁ऐतिहासिक	-10.4278
▁प्रेमचंद	-10.4278
▁continue	-10.4279
▁cold	-10.4281
▁2005	-10.4282
▁nations	-10.4285
▁पूजा	-10.4285
▁Har	-10.4285
ಿಗ	-10.4287
▁John	-10.4287
ಸಂ	-10.4289
&	-10.4289
▁What▁is▁the	-10.4291
▁ವರ್ಷದ	-10.4292
ಈ	-10.4294
▁as▁it	-10.4296
▁expect	-10.4297
▁soul	-10.43
▁someone	-10.4301
▁सामान्यत	-10.4304
ೌ	-10.4304
ುವುದನ್ನು	-10.4308
ze	-10.4309
▁when▁they	-10.4311
▁out▁of▁the	-10.4313
▁constitutional	-10.4319
▁garden	-10.4322
▁हिंसा	-10.4324
▁जिम्मेदार	-10.4324
▁निर्यात	-10.4324
▁रो	-10.4326
▁आदर्श	-10.4328
▁न्यायिक	-10.4329
▁आपने	-10.4332
▁ब्रह्म	-10.4332
▁किया▁गया▁था	-10.4333
▁खिलाड़ी	-10.4333
▁पैसे	-10.4335
▁आगरा	-10.4337
▁This▁is▁the	-10.4341
▁access	-10.4342
▁Sir	-10.4343
ओं▁से	-10.4344
▁ಅಭಿಪ್ರಾಯ	-10.4345
▁teachers	-10.4352
▁जल्दी	-10.4354
▁ने▁इस	-10.4355
▁fact	-10.4355
ವರಿಗೆ	-10.4356
▁पैर	-10.4356
?"	-10.4356
▁व्य	-10.436
▁पुन	-10.4364
▁choice	-10.4364
▁दोष	-10.4367
▁ಓದ	-10.4368
do	-10.4369
▁आठ	-10.437
▁billion	-10.437
▁safety	-10.4372
▁Read	-10.4372
▁fell	-10.4373
▁eat	-10.4374
▁कितना	-10.4377
▁हिस्सा	-10.4381
▁१	-10.4382
▁in▁Hindi	-10.4387
▁ನೀರಿನ	-10.4389
▁कार्रवाई	-10.439
▁Pa	-10.4391
▁Up	-10.4391
▁candidate	-10.4394
▁closed	-10.4399
▁व्यक्तिगत	-10.4405
▁हु	-10.4407
▁इसने	-10.4407
▁और▁हम	-10.4409
▁units	-10.441
▁एक▁और	-10.4412
▁ಅವಳ	-10.4412
▁ಒಳ್ಳೆಯ	-10.4413
fi	-10.4414
▁History	-10.4418
▁levels	-10.4418
ey	-10.4418
ಷ್ಟೇ	-10.4421
ंत	-10.4423
▁sh	-10.4423
▁सलाह	-10.4424
▁ಯುದ್ಧ	-10.4424
ॊ	-10.4425
▁on▁social▁media	-10.4425
▁ಕಾಯ	-10.4425
we	-10.4426
ತೆಯನ್ನು	-10.4432
हंसी	-10.4433
ने▁और	-10.4436
▁खड़	-10.4437
▁पु	-10.444
dev	-10.4443
▁the▁woman	-10.4445
▁in▁your	-10.4447
▁recorded	-10.4448
od	-10.4449
▁sources	-10.445
▁conducted	-10.4452
ika	-10.4453
▁मो	-10.4455
▁ನೀಡಿದ	-10.4456
▁ba	-10.4458
▁yourself	-10.4462
65	-10.4462
▁ಸ್ಪಷ್ಟ	-10.4462
▁ho	-10.4463
▁write	-10.4464
▁Hospital	-10.4464
▁Kabir	-10.4464
▁विरुद्ध	-10.4465
ammu▁and▁Kashmir	-10.4469
▁मिले	-10.4472
▁thousands	-10.4474
पे	-10.4474
▁वस्तु	-10.4475
▁ಮಾಡಿಕೊಳ್ಳ	-10.4481
▁दिए	-10.4481
▁mainly	-10.4481
▁ನ್ಯಾಯಾಲಯ	-10.4481
based	-10.4482
▁era	-10.4482
▁ವಿದ್ಯುತ್	-10.4482
▁use▁of	-10.4483
ath	-10.4485
▁the▁law	-10.4486
▁पुरानी	-10.4487
ac	-10.4488
▁separate	-10.4491
▁surface	-10.4491
▁2019	-10.4492
▁ಗಮನ	-10.4492
▁Ko	-10.4496
▁वातावरण	-10.4498
▁ಐದು	-10.4499
▁college	-10.4499
▁lay	-10.4501
मो	-10.4501
▁ಒಳ	-10.4501
▁अवस्था	-10.4501
▁बैठ	-10.4504
▁mass	-10.4506
▁ಮುಖ್ಯಸ್ಥ	-10.4507
▁Life	-10.4507
▁examples	-10.4508
▁worth	-10.451
▁Although	-10.4511
▁journey	-10.4511
▁studies	-10.4511
▁ಇದೀಗ	-10.4511
▁Corporation	-10.4511
▁ಮಾತಾಡ	-10.4511
▁भविष्य	-10.4514
▁to▁India	-10.4516
ke	-10.4517
▁about▁this	-10.4517
▁reality	-10.4518
▁की▁बात	-10.4519
▁expected	-10.452
▁wickets	-10.4521
▁बातें	-10.4522
▁रहने	-10.4525
▁ಹು	-10.4527
"""	-10.4527
▁back▁to	-10.4527
▁rushed	-10.4528
▁institutions	-10.4529
▁motion	-10.453
▁स्प	-10.453
▁of▁the▁state	-10.4531
▁walls	-10.4531
ेज	-10.4531
▁प्रकट	-10.4532
ಕೊ	-10.4532
▁song	-10.4532
▁ದಾಖಲೆ	-10.4532
▁सच	-10.4534
▁ಮಹಿಳೆ	-10.4537
▁ಆದೇಶ	-10.4538
▁in▁any	-10.4542
▁ಬಂಧನ	-10.4542
▁उपन्यास	-10.4544
▁student	-10.4546
▁ಹೊಂದಿರುವ	-10.4553
▁Pro	-10.4553
▁मौसम	-10.4556
▁ಸೌಲಭ್ಯ	-10.4558
▁Company	-10.4558
▁Public	-10.4558
▁ಶೆಟ್ಟಿ	-10.4558
▁फिर▁से	-10.4558
40	-10.456
▁Nobody	-10.4563
ೆಲ್ಲಾ	-10.4564
ಿಗಾಗಿ	-10.4564
▁निवेश	-10.4566
▁उल्लेख	-10.4566
▁standing	-10.4567
▁दें	-10.4567
▁decided▁to	-10.4568
▁समय▁में	-10.4572
▁उच्चतम▁न्याय	-10.4573
▁becoming	-10.4576
ಶಿ	-10.4579
▁vision	-10.4581
▁skin	-10.4581
▁ಚೀನಾ	-10.4584
ions	-10.4586
▁रचना	-10.4589
▁के▁लिए▁एक	-10.4591
▁Rajya▁Sabha	-10.4595
▁which▁he	-10.4595
▁ಯುವ	-10.4595
ಯನ್ನೂ	-10.4596
s▁at	-10.4597
ೇಶ್	-10.4599
▁सू	-10.46
▁सरकार▁को	-10.4602
▁तेजी▁से	-10.4602
▁ಪೆ	-10.4602
ick	-10.4603
▁कलाकार	-10.4604
▁seek	-10.4605
▁internet	-10.4606
▁fresh	-10.4606
▁जर्मनी	-10.4606
पत्र	-10.4607
युक्त	-10.4607
▁mostly	-10.4608
▁ಸಾಧನೆ	-10.4609
तालियाँ	-10.4611
▁hot	-10.4612
ಿದ್ದರೆ	-10.4613
▁ಪ್ರತಿಕ್ರಿಯೆ	-10.4618
▁६	-10.4618
▁to▁provide	-10.4618
ंच	-10.4621
▁पर▁आधारित	-10.4622
पति	-10.4623
▁individuals	-10.4625
▁ತಿಳಿಸಿದರು	-10.4626
वाह	-10.4629
15	-10.4632
▁allow	-10.4633
िल	-10.4637
ವಾಗುತ್ತದೆ	-10.4639
ಡಾ	-10.4639
▁secretary	-10.4639
▁पर▁एक	-10.4642
▁benefits	-10.4644
▁healthy	-10.4647
ko	-10.4648
▁Board	-10.4648
▁को▁लेकर	-10.465
▁ट	-10.465
सि	-10.4653
▁Several	-10.4653
▁Siddaramaiah	-10.4653
▁stopped	-10.4653
▁ಏಕೆಂದರೆ	-10.4653
▁goods	-10.4654
▁planning	-10.4654
▁ಇನ್ನಷ್ಟು	-10.4654
▁ಇಡೀ	-10.4655
▁decisions	-10.466
▁शा	-10.466
ವನು	-10.4662
ित▁है	-10.4662
▁तरीके	-10.4664
▁ಪ್ರಸ್ತುತ	-10.4668
tha	-10.4669
▁घंटे	-10.467
▁मंच	-10.4671
▁रहती▁है	-10.4671
▁traditional	-10.4672
bar	-10.468
▁eye	-10.4683
▁Bengal	-10.4688
▁to▁bring	-10.4688
▁ಇವು	-10.4688
▁ಗುರುತಿಸ	-10.4689
▁का▁कोई	-10.4691
▁ಕರ್ತನ	-10.4693
▁August	-10.47
▁presence	-10.4701
▁and▁are	-10.4701
▁उपचार	-10.4701
▁स्रोत	-10.4704
▁ನಷ್ಟ	-10.4704
▁refused	-10.4705
▁removed	-10.4707
▁straight	-10.4708
▁लोक▁सभा	-10.471
▁the▁king	-10.4712
▁has▁not	-10.4713
ಲಾಗಿದ್ದು	-10.4715
▁brothers	-10.4715
▁site	-10.4715
▁गुफा▁मंदिर	-10.4715
▁ಬರೆದ	-10.4718
▁went▁to	-10.4718
ती▁हुई	-10.4719
▁ಶಿವ	-10.472
▁We▁will	-10.4723
▁लि	-10.4723
▁संरचना	-10.4725
▁idea	-10.4727
▁2018	-10.4729
18	-10.4729
मत	-10.473
▁because▁the	-10.4731
▁across▁the	-10.4733
तु	-10.4734
ी▁हैं	-10.4737
▁for▁its	-10.474
▁coal	-10.4741
▁with▁them	-10.4741
ಿದ್ದವು	-10.4741
▁turned	-10.4741
▁Before	-10.4742
▁tell	-10.4742
▁उन्हे	-10.4742
▁Vishnu	-10.4743
ವೋ	-10.4746
▁Research	-10.4749
▁officer	-10.475
▁बदलाव	-10.4754
ಚಿ	-10.4754
use	-10.4755
▁ಅವನನ್ನು	-10.4755
▁ಹಂತ	-10.4757
▁target	-10.4759
▁ಎಂದು▁ಹೇಳ	-10.4761
▁ನಿರ್ಮಾಣ	-10.4762
▁महल	-10.4763
shi	-10.4765
▁ಬದುಕ	-10.4766
▁ಸಿದ್ದರಾಮಯ್ಯ	-10.4766
▁कब	-10.4767
▁request	-10.4768
▁अभी▁भी	-10.4769
▁gas	-10.4773
▁ले▁जा	-10.4774
▁ಪತ್ರ	-10.4774
▁the▁matter	-10.4776
ini	-10.4779
▁अं	-10.4781
े▁और	-10.4781
▁मना	-10.4782
हीन	-10.4782
▁भार	-10.4783
▁vote	-10.4784
▁सूर	-10.4787
▁आते▁हैं	-10.4789
▁ಪ್ರದರ್ಶನ	-10.4794
▁pollution	-10.4796
▁suicide	-10.4798
▁convert	-10.4799
▁feed	-10.4799
▁soft	-10.4802
▁हानि	-10.4802
ಯೊ	-10.4803
▁roads	-10.4804
▁took▁place	-10.4807
▁program	-10.4807
▁most▁important	-10.4807
▁अग्र	-10.4808
▁parliament	-10.4809
ವಾಗಿದ್ದು	-10.4809
▁and▁was	-10.481
▁ಸ್ಥಿತಿ	-10.4811
▁charges	-10.4813
िड	-10.4828
▁बीच	-10.4829
▁pa	-10.4829
▁remember	-10.4832
▁trees	-10.4836
▁Plan	-10.4839
▁your▁child	-10.4839
ीं	-10.484
▁electricity	-10.4843
▁Subhas▁Chandra	-10.4843
▁इस्पात	-10.4844
""."	-10.4845
▁निम्न	-10.4846
▁इसके▁लिए	-10.4846
▁vital	-10.4846
▁रात	-10.4847
▁ನೋವು	-10.4848
▁प्रौद्योगिकी	-10.4848
▁beginning	-10.4849
शा	-10.4849
धार	-10.4852
▁David	-10.4852
▁मेल	-10.4854
▁collection	-10.4854
ಾರ್	-10.4854
▁लौट	-10.4856
▁ವಾ	-10.486
▁suffering	-10.4863
▁ಸಿದ್ಧ	-10.4865
▁Chairman	-10.4867
▁attempt	-10.487
▁friend	-10.4871
िस	-10.4871
▁ಮಾಡಿದೆ	-10.4872
▁to▁you	-10.4872
▁vehicles	-10.4873
▁को▁अपने	-10.4876
▁engine	-10.4876
▁ः	-10.4883
▁$	-10.4885
ide	-10.4886
र्ट	-10.4889
त्त	-10.489
▁1.5	-10.489
▁खुले	-10.4891
▁Agra	-10.4891
▁कर्तव्य	-10.4893
▁sought	-10.4894
▁software	-10.4895
▁बंबई	-10.4895
▁यह▁बात	-10.4895
▁रामायण	-10.4896
▁bodies	-10.4896
▁card	-10.4897
▁happens	-10.49
▁हमारे▁पास	-10.4901
▁relief	-10.4901
▁views	-10.4903
▁plans	-10.4904
▁घाट	-10.4904
▁ಮೇಲ	-10.4906
▁ಖಾತೆ	-10.4906
▁लक्षण	-10.4907
ster	-10.4908
ize	-10.4909
नो	-10.4912
▁ಮಾರಾಟ	-10.4912
▁reduced	-10.4913
▁ಸರಳ	-10.4913
▁ಈ▁ಸಂದರ್ಭದಲ್ಲಿ	-10.4916
िता	-10.4918
▁परियोजना	-10.4918
▁Pe	-10.492
▁causes	-10.492
▁Sha	-10.4921
▁union	-10.4925
ುತ್ತ	-10.4926
▁इनक	-10.4927
▁ಅಧ್ಯಯನ	-10.4927
क्स	-10.4929
▁maximum	-10.4929
लैंड	-10.4933
▁जब▁आप	-10.4933
▁लेकिन▁यह	-10.4935
▁demanded	-10.4936
▁चाह	-10.4939
▁hear	-10.494
▁the▁Bible	-10.494
▁सूची	-10.494
▁Vijay	-10.4941
▁super	-10.4943
▁अचानक	-10.4944
▁Don	-10.4944
▁permission	-10.4944
▁Pre	-10.4945
▁Chennai	-10.4946
ಂಡ್	-10.4946
ಂತಹ	-10.4947
▁a▁man	-10.495
▁ನೂತನ	-10.495
▁Premchand	-10.4951
▁Maha	-10.4954
▁the▁incident	-10.4955
ಯೊಂದಿಗೆ	-10.4959
▁both▁the	-10.4959
▁लोगों	-10.4961
▁अभी▁तक	-10.4961
▁ಡ	-10.4963
▁maintain	-10.4966
hu	-10.4968
▁desire	-10.4969
▁लेते▁हैं	-10.4972
▁प्रा	-10.4972
ಗಳ▁ಬಗ್ಗೆ	-10.4973
▁speaking	-10.4976
▁ने▁अपनी	-10.4976
▁की▁तुलना▁में	-10.4982
▁दशक	-10.4985
▁teams	-10.4985
▁जिले	-10.4986
▁South▁Africa	-10.4986
ंज	-10.4991
▁effective	-10.4991
▁ಪ್ರವೇಶ	-10.4993
▁indeed	-10.4993
▁कानूनी	-10.4994
▁responsible▁for	-10.4994
▁ಖಾಸಗಿ	-10.4996
▁गुरु	-10.4997
▁exist	-10.4997
▁ಅನುಭವಿಸ	-10.4998
▁ಇತಿಹಾಸ	-10.4999
▁पैसा	-10.4999
ತ್ಯ	-10.5002
▁fair	-10.5003
▁firm	-10.5005
▁who▁were	-10.5006
▁दिमाग	-10.5007
▁से▁बाहर	-10.5008
पूर्व	-10.5008
ified	-10.5009
िये	-10.5009
▁नैतिक	-10.5011
▁ಭಾರ	-10.5013
▁सै	-10.5014
▁was▁made	-10.5014
ना▁है	-10.5018
▁domestic	-10.5021
ಮು	-10.5023
▁में▁आ	-10.5026
▁ತಂತ್ರಜ್ಞಾನ	-10.5027
ಯಲ್ಲ	-10.5027
▁fixed	-10.5029
ten	-10.503
75	-10.5031
▁Governor	-10.5033
▁भगवान	-10.5033
▁scored	-10.5033
▁वैसे	-10.5034
der	-10.5034
▁ज़	-10.5039
istic	-10.504
▁संयंत्र	-10.5042
▁failure	-10.5042
▁अभियान	-10.5042
▁River	-10.5043
▁Like	-10.5043
ಥ	-10.5044
▁38	-10.5047
▁examination	-10.5047
▁भी▁हैं	-10.5049
▁Pra	-10.5055
▁whatever	-10.5056
▁के▁पीछे	-10.5057
▁period▁of	-10.5057
▁should▁not▁be	-10.5059
▁पवित्र	-10.506
▁ಅಂತಿಮ	-10.506
+	-10.5061
▁du	-10.5061
▁particular	-10.5061
▁for▁them	-10.5062
▁राजनीति	-10.5063
▁नियमित	-10.5065
▁अनुमान	-10.5068
▁महीने	-10.5071
▁चौ	-10.5072
▁गरीब	-10.5074
▁५	-10.5074
▁ನೀತಿ	-10.5075
▁Army	-10.5076
▁अंक	-10.5078
▁ನಿಂತ	-10.5083
▁pillars	-10.5088
▁नेताओं	-10.5088
▁moving	-10.5092
▁Farmers	-10.5092
▁Mahabharata	-10.5095
▁Over	-10.5095
▁और▁उस	-10.5097
▁due▁to▁the	-10.5097
▁भावना	-10.5099
▁जटिल	-10.5099
ade	-10.5099
▁ಹಿಂದಿನ	-10.51
ments	-10.5101
▁ಜೆಡಿಎಸ್	-10.5103
▁baby	-10.511
▁videos	-10.5111
▁scale	-10.5111
▁defeat	-10.5113
▁En	-10.5113
▁ಸಾಧ್ಯ	-10.5113
▁ಪರಿ	-10.5114
▁ವಿದ್ಯಾರ್ಥಿ	-10.5114
ುವುದಕ್ಕೆ	-10.5115
▁दिया▁था	-10.5115
▁Bollywood	-10.5116
▁और▁आप	-10.5118
▁Department	-10.5118
▁for▁all	-10.512
▁sentence	-10.5121
▁West	-10.5126
isation	-10.5127
वन	-10.513
श्	-10.5131
▁procedure	-10.5133
▁multi	-10.5138
▁Though	-10.514
GB	-10.514
▁प्रकाशित	-10.5141
▁ಬಿಜೆಪಿಯ	-10.5141
▁career	-10.5142
▁potential	-10.5142
▁ourselves	-10.5142
▁अर्थव्यवस्था	-10.5142
▁Earth	-10.5143
▁arrived	-10.5145
▁COVID	-10.5146
▁ಪೆಟ್ರೋಲ್	-10.5147
ुक	-10.5147
▁ತಂಡದ	-10.5147
▁कीमत	-10.5151
▁उपाय	-10.5155
▁ಬೆಳವಣಿಗೆ	-10.516
▁than▁the	-10.5161
*	-10.5161
▁ಮದುವೆ	-10.5163
▁while▁the	-10.5166
▁के▁माध्यम▁से	-10.5166
▁की▁मांग	-10.5168
▁की▁अपेक्षा	-10.5169
▁उम्र	-10.517
▁ವಿವಾದ	-10.5173
▁border	-10.5177
▁जहाज	-10.5179
▁ಪುಟ	-10.518
▁follow	-10.5182
▁steel	-10.5182
port	-10.5183
▁ಅಪಾಯ	-10.5187
ಪಾ	-10.5191
▁ಅಧಿಕ	-10.5192
▁वीडियो	-10.5192
▁Badruddin	-10.5192
▁ಏನೂ	-10.5193
▁to▁their	-10.5194
ವಾಗಿರುತ್ತದೆ	-10.5194
▁of▁Parliament	-10.5195
▁sin	-10.5201
▁ಅರ	-10.5203
▁PM▁Modi	-10.5204
▁Do▁not	-10.5205
▁मामलों▁में	-10.5205
▁girl	-10.5206
▁banks	-10.5208
lam	-10.5209
▁reach	-10.5209
▁I▁am▁not	-10.5212
▁अधिकारियों	-10.5214
▁किनारे	-10.5214
▁Christ	-10.5215
▁Subhas	-10.5215
▁ಚಿಕ್ಕ	-10.5223
▁तस्वीर	-10.5223
▁हो▁जाते▁हैं	-10.5223
▁आग	-10.5224
▁इस्लामी	-10.5225
▁48	-10.5226
▁ಇರುತ್ತದೆ	-10.5226
▁beyond	-10.5227
▁ಹೃದಯ	-10.5228
▁fun	-10.5228
▁iron	-10.5233
pro	-10.5235
ron	-10.5235
▁के▁निकट	-10.5237
▁ಮಾಡಬಹುದು	-10.5239
mar	-10.5239
▁सिद्ध	-10.524
झ	-10.5243
▁Netaji	-10.5243
▁36	-10.5243
▁ಚೆನ್ನೈ	-10.5243
▁Buddha	-10.5243
ी▁की	-10.5246
ಾಯ	-10.5247
▁Students	-10.5247
▁born	-10.5248
▁Mahatma▁Gandhi	-10.5249
ಿಡ	-10.5249
▁125	-10.5256
▁पहले▁ही	-10.5257
▁ಹೊ	-10.5257
ug	-10.5259
▁आज▁भी	-10.526
▁fit	-10.5262
▁soil	-10.5265
▁ಮೂವರು	-10.5266
▁center	-10.527
▁ठ	-10.527
द्ध	-10.5271
▁centuries	-10.5273
▁in▁the▁year	-10.5274
ಗಾ	-10.5277
६	-10.5278
▁ರಾಜ್ಯ▁ಸರ್ಕಾರ	-10.5278
ों▁के▁बारे▁में	-10.5281
▁2008	-10.5285
ಕ್ಸ್	-10.5287
ುವರು	-10.529
▁वी	-10.5291
▁Science	-10.5293
▁Afghanistan	-10.5294
▁ಸಾಮಾಜಿಕ▁ಜಾಲತಾಣ	-10.5294
▁ಪರಿಸರ	-10.5294
▁sa	-10.5294
▁keeping	-10.5295
dar	-10.5297
▁I▁don	-10.5297
▁ಇದ್ದಾರೆ	-10.5299
ans	-10.53
▁ಸ್ವಾತಂತ್ರ್ಯ	-10.53
▁changing	-10.5302
ಪಡಿಸ	-10.5302
▁fish	-10.5304
▁ತಿಳಿಯ	-10.5304
▁संकट	-10.5306
▁से▁कुछ	-10.5306
▁systems	-10.5307
▁करना▁है	-10.5307
ಿದ್ದೆ	-10.5311
▁ವೈದ್ಯಕೀಯ	-10.5312
▁♫	-10.5312
▁बसव	-10.5313
भर	-10.5313
▁look▁at	-10.5313
▁ಶಾಂತಿ	-10.5315
राम	-10.5317
▁मंत्रालय	-10.5317
▁ಸುಲಭ	-10.5318
▁आफ	-10.532
▁विभाजन	-10.5322
ांग	-10.5323
▁Which	-10.5325
▁ತಲುಪ	-10.5325
▁चीनी	-10.5325
▁The▁incident	-10.5327
▁should▁not	-10.533
ೆಲ್ಲ	-10.5336
▁जीवन▁में	-10.5338
▁और▁कुछ	-10.534
ಪುರ	-10.5341
▁ತೊಂದರೆ	-10.5343
▁ತಲೆ	-10.5343
▁विष्णु	-10.5344
▁ಚಲನಚಿತ್ರ	-10.5345
▁sitting	-10.5347
▁आइ	-10.5349
▁वर्ण	-10.535
▁She▁was	-10.5352
▁ಇಂಡಿಯಾ	-10.5354
▁ಆಸ್ಪತ್ರೆಗೆ▁ದಾಖಲ	-10.5354
▁to▁all	-10.5355
▁छोटा	-10.5356
▁प्रगति	-10.5356
बू	-10.5358
▁tour	-10.5362
▁हो▁गयी	-10.5362
ush	-10.5362
▁सफलता	-10.5364
▁Justice	-10.5367
▁ಎಲ್ಲರಿಗೂ	-10.5367
▁ಅದ	-10.5367
▁for▁it	-10.5368
▁Take	-10.5368
▁ಜ್ಞಾನ	-10.5369
▁अप	-10.5372
▁किया▁और	-10.5373
▁occur	-10.5374
ising	-10.5376
▁सुविधा	-10.5377
▁ಬೋ	-10.538
▁ಎಫ್	-10.5381
▁साल▁पहले	-10.5383
▁ಸಿಎಂ	-10.5386
ಗಳ▁ಮೇಲೆ	-10.5389
▁projects	-10.5389
▁मिनट	-10.539
▁believe▁that	-10.5394
▁ಕೋವಿಡ್	-10.5396
▁के▁सभी	-10.5397
▁ಬೇಡಿಕೆ	-10.5397
ियो	-10.5398
▁track	-10.54
▁regular	-10.54
▁More▁than	-10.5401
▁way▁of	-10.5402
▁आंख	-10.5402
▁Children	-10.5404
▁credit	-10.5404
▁आवश्यकता	-10.5408
45	-10.541
ಗೋ	-10.5412
▁राजधानी	-10.5413
tu	-10.5413
▁pattern	-10.5414
▁y	-10.5417
▁Ta	-10.5419
▁कठोर	-10.542
▁डा	-10.5421
▁संगम	-10.5422
▁trouble	-10.5424
▁with▁him	-10.5426
▁हो▁तो	-10.5427
go	-10.5427
ಎಲ್	-10.5429
▁pure	-10.5429
वें	-10.543
▁mountain	-10.5431
▁और▁वो	-10.5436
▁ಅಮೆರಿಕ	-10.5438
▁ಮನೆಯ	-10.5438
▁most▁of▁the	-10.5439
▁कमी	-10.5439
▁In▁a	-10.5442
▁origin	-10.5445
▁पीठ	-10.5445
▁वार्षिक	-10.5447
▁ಲಕ್ಷ▁ರೂ	-10.545
▁नमूने	-10.5451
▁tri	-10.5452
▁गुट	-10.5452
▁जे	-10.5453
▁न▁तो	-10.5453
▁More	-10.5453
y▁and	-10.5454
▁ಮತ್ತೊಂದ	-10.5454
▁फूल	-10.5454
▁script	-10.5456
▁clearly	-10.5457
▁ಗೆದ್ದ	-10.5458
▁ಕೆಲವರು	-10.546
▁for▁you	-10.5461
▁goal	-10.5461
▁के▁मामले▁में	-10.5462
▁based	-10.5464
▁But▁they	-10.5464
▁.▁.▁.	-10.5465
▁घ	-10.5465
▁principle	-10.5467
▁knows	-10.5467
ham	-10.5468
▁ಸಾಕ್ಷಿ	-10.5468
▁सुरक्षित	-10.5472
▁ga	-10.5475
▁राज्यों	-10.5481
▁करती▁हैं	-10.5482
▁Gandhiji	-10.5484
यो	-10.5488
▁ರಿಂದ	-10.549
▁छह	-10.5492
▁selected	-10.5493
▁Japan	-10.5493
▁classes	-10.5495
▁for▁us	-10.5495
▁ರೀತಿಯ	-10.5497
▁सेवाओं	-10.5497
▁impossible	-10.5499
▁permanent	-10.55
▁ordinary	-10.55
▁उद्योगों	-10.55
▁operation	-10.55
India	-10.55
ाइड	-10.5501
▁Brahma	-10.5501
▁इसके▁अलावा	-10.5503
▁approach	-10.5504
▁सत्र	-10.5505
▁पर्वत	-10.5506
▁members▁of▁the	-10.5506
▁drugs	-10.5508
off	-10.551
▁critical	-10.5511
ಎನ್	-10.5511
▁ಸೀ	-10.5513
▁tried	-10.5513
▁sun	-10.5514
▁tea	-10.5518
▁investment	-10.5518
▁ವಿಚಾರಣೆ	-10.5518
▁bed	-10.5522
▁Jain	-10.5523
▁लोगों▁ने	-10.5524
▁Ro	-10.5525
▁संभव	-10.5528
▁बु	-10.5532
▁appear	-10.5535
▁Raja	-10.5535
ओं▁की	-10.5536
▁lies	-10.554
▁soldiers	-10.5544
▁भत	-10.5545
▁labour	-10.5548
▁committed	-10.5549
▁जलवायु	-10.555
▁Association	-10.5551
▁medium	-10.5551
▁opportunities	-10.5551
▁mention	-10.5552
▁विवरण	-10.5552
▁France	-10.5554
▁ಕ್ರಮ▁ಕೈಗೊಳ್ಳ	-10.5554
▁ರೈಲು	-10.5556
▁स्त्री	-10.5557
▁दान	-10.5557
▁create	-10.5559
▁ಲಾ	-10.5559
▁port	-10.5561
▁के▁नीचे	-10.5564
▁उनके▁लिए	-10.5565
▁ತಿಂಗಳ	-10.5567
▁मानवीय	-10.5568
▁तंत्र	-10.557
▁कार्यपालिका	-10.5572
▁fundamental	-10.5577
▁leg	-10.5577
▁ಅದ್ಭುತ	-10.558
▁ಯಾರಿಗೂ	-10.5581
ುವಿಕೆ	-10.5581
▁note	-10.5587
▁East	-10.5588
▁poverty	-10.559
णा	-10.5593
ver	-10.5594
▁आकर	-10.5594
▁जेल	-10.5594
▁ಆದ	-10.5595
▁Son	-10.5597
▁differences	-10.56
▁मीटर	-10.5601
▁अगस्त	-10.5604
▁Mughal	-10.5604
▁लोकतंत्र	-10.5604
▁ಲಿ	-10.5605
▁with▁an	-10.5606
▁Africa	-10.5606
▁ಎನ್ನಲಾಗಿದೆ	-10.5606
▁Ch	-10.5608
▁Hence	-10.561
▁And▁it	-10.5611
▁सभ्यता	-10.5614
▁करा	-10.5614
▁has▁not▁been	-10.5615
▁गर्म	-10.5615
▁हिन्दू▁धर्म	-10.5621
ens	-10.5621
▁घटक	-10.5623
▁buildings	-10.5625
▁performed	-10.5628
▁आयु	-10.5628
▁highly	-10.5631
king	-10.5632
▁door	-10.5633
▁legs	-10.5634
▁ಏನ	-10.5636
▁reports	-10.5637
▁आने	-10.5641
ंकि	-10.5644
▁No▁one	-10.5644
▁poem	-10.5648
ಖ್	-10.5651
ರೀ	-10.5651
▁holy	-10.5653
▁basis	-10.5654
wan	-10.5655
▁presented	-10.5657
▁अत्यंत	-10.5657
▁परिषद	-10.5657
ಬರ	-10.5658
▁cancer	-10.5658
▁Yahweh	-10.566
▁Since	-10.5661
र्न	-10.5663
ों▁के▁अनुसार	-10.5666
▁receive	-10.5666
▁called▁the	-10.5667
▁ಸ್ಪರ್ಧೆ	-10.5668
म्प	-10.5672
ೂರು	-10.5673
▁diet	-10.5674
▁ahead	-10.5675
▁लोकसभा	-10.5676
▁ने▁एक	-10.5679
▁के▁कुछ	-10.5681
▁YouTube	-10.5682
▁of▁which	-10.5682
▁Whats	-10.5683
▁ಮತ	-10.5685
▁historical	-10.5687
▁likely	-10.5689
▁criminal	-10.569
▁JD	-10.5694
▁Hyderabad	-10.5695
ing▁in	-10.5697
had	-10.5701
▁of▁water	-10.5702
▁flight	-10.5703
AL	-10.5703
▁Shiva	-10.5706
▁ಮಾನವ	-10.5707
2)	-10.5707
▁College	-10.5709
▁prevent	-10.5709
▁ಸರಿಯಾಗಿ	-10.571
▁ಮಹಿಳೆಯರ	-10.571
▁corruption	-10.571
▁के▁समक्ष	-10.5711
work	-10.5714
▁भारत▁सरकार	-10.5715
ub	-10.5717
▁provision	-10.5718
▁master	-10.5719
▁SC	-10.5721
▁ರನ್	-10.5724
▁produce	-10.5731
ore	-10.5734
▁प्रचलित	-10.5736
▁to▁be▁a	-10.5736
▁छत	-10.5745
ಕಾರಿ	-10.5747
▁जाएगा	-10.5752
▁come▁to	-10.5754
ed▁for	-10.5754
▁ಕ್ಷೇತ್ರದಲ್ಲಿ	-10.5755
▁in▁an	-10.5755
ोस	-10.5757
▁page	-10.576
▁because▁it	-10.5761
▁jurisdiction	-10.5762
तल	-10.5763
avi	-10.5764
▁ಇದರಿಂದಾಗಿ	-10.5766
▁THE	-10.5771
▁ಕೋರ್ಟ್	-10.5771
▁affect	-10.5773
▁क्रांतिकारी	-10.5774
▁फीस	-10.5781
▁All▁the	-10.5781
▁ಸಮಿತಿ	-10.5782
▁ಜತೆಗೆ	-10.5784
ಿದಾಗ	-10.5785
▁ಬರುವ	-10.5787
▁doctors	-10.5788
▁मुकदम	-10.5789
▁ಚಿ	-10.5789
▁wood	-10.579
▁ಒದಗಿಸ	-10.5791
▁accept	-10.5792
▁ಹೈ	-10.5794
दीन	-10.5798
▁lines	-10.5799
▁ill	-10.5802
au	-10.5804
▁ಆತ್ಮ	-10.5806
▁मानक	-10.5806
कल	-10.5806
▁ಗಾ	-10.5808
ುತ್ತಿದ್ದೇವೆ	-10.5808
▁के▁बावजूद	-10.5814
▁an▁important	-10.5814
▁किस्म	-10.5815
▁निरंतर	-10.5816
▁philosophy	-10.5816
▁relations	-10.5816
▁ಬಹುತೇಕ	-10.5816
▁ಇನ್ನೊಂದು	-10.5818
▁थोड़ा	-10.5819
▁build	-10.5819
▁गूगल	-10.5819
▁समस्त	-10.582
ಬು	-10.582
▁ಜವಾಬ್ದಾರಿ	-10.582
▁concern	-10.5824
▁ಮಗು	-10.5825
▁जो▁एक	-10.5829
ew	-10.5831
▁Party	-10.5834
▁स्वर	-10.5834
हिन्दी	-10.5835
▁ಹೆಚ್ಚುವರಿ	-10.5836
▁doesnt	-10.5836
▁ಗಾಯ	-10.5839
▁ಕಡೆ	-10.584
ों▁की▁संख्या	-10.5841
▁गैस	-10.5841
uni	-10.5842
ಒ	-10.5842
▁ನಿರೀಕ್ಷೆ	-10.5846
das	-10.5853
यन	-10.5854
▁मुश्किल	-10.5856
▁costs	-10.5856
▁mo	-10.5857
▁ಸ್ಟ	-10.5858
ring	-10.5861
▁ಸಲಹೆ	-10.5861
▁teaching	-10.5864
▁Award	-10.5865
▁suffered	-10.5869
▁Madhya▁Pradesh	-10.587
▁ಇತ್ತೀಚೆಗೆ	-10.587
▁commercial	-10.587
▁1939	-10.587
▁output	-10.5872
▁communication	-10.5874
▁मोबाइल▁फोन	-10.5875
▁extra	-10.5876
▁Chandra	-10.5877
ever	-10.5879
▁ನಡೆಯಿತು	-10.588
▁sister	-10.5881
▁ಎಲ್ಲರ	-10.5882
▁ಪ್ರದೇಶ	-10.5882
▁Service	-10.5883
▁सहज	-10.5883
▁संख्या	-10.589
▁for▁India	-10.5891
ುತ್ತೆ	-10.5892
▁fighting	-10.5896
▁to▁know	-10.5896
▁दा	-10.5896
▁ಪೂರ್ಣ	-10.5898
▁तो▁हम	-10.5901
▁ಹತ್ಯೆ	-10.5902
▁j	-10.5904
▁middle	-10.5905
▁users	-10.5906
▁a▁day	-10.5911
ಗೊಳ್ಳ	-10.5911
▁internal	-10.5915
▁लंबी	-10.5917
▁ಜನರನ್ನು	-10.592
▁ruling	-10.5923
▁discussed	-10.5923
▁प्रतिनिधित्व	-10.5924
▁व्यवसाय	-10.5925
▁High	-10.5925
ation▁of	-10.5927
▁गर्मी	-10.5931
▁the▁situation	-10.5931
▁any▁other	-10.5937
▁stands	-10.5938
▁के▁चलते	-10.594
ins	-10.594
▁ಕ್ಯಾಮೆರಾ	-10.5942
▁उतन	-10.5943
ं▁और	-10.5944
▁जय	-10.5945
▁से▁ज्यादा	-10.5945
▁इच्छा	-10.5945
▁ಇಬ್ಬರ	-10.5945
▁ಯೋಗ	-10.5946
▁opened	-10.5946
▁image	-10.5948
▁जाकर	-10.5949
▁ಮಹಾರಾಷ್ಟ್ರ	-10.5949
▁newspaper	-10.5953
▁Tamil▁Nadu	-10.5954
▁contains	-10.5954
▁गुजरात	-10.5956
▁boy	-10.5956
▁teacher	-10.5958
▁ಸದಸ್ಯ	-10.596
▁Jan	-10.596
▁के▁पहले	-10.5961
▁expression	-10.5961
▁for▁me	-10.5962
▁उन▁पर	-10.5963
▁northern	-10.5968
▁ಇದ್ದರು	-10.5968
za	-10.5969
ಹ್	-10.5972
▁जवाब	-10.5973
ವನ	-10.5973
▁कितन	-10.5974
▁अस्तित्व	-10.5974
▁looked	-10.5974
▁twenty	-10.5978
▁संवैधानिक	-10.5978
▁false	-10.5978
▁dark	-10.5979
▁देने▁के▁लिए	-10.5982
▁?▁?	-10.5982
ಾಪ	-10.5982
▁the▁time	-10.5983
▁in▁terms▁of	-10.5987
▁रखा	-10.5988
▁ಅಧಿಕಾರಿ	-10.5988
ों▁तक	-10.5989
▁length	-10.5989
▁लिपि	-10.5991
▁बन▁गया	-10.5991
▁finally	-10.5993
्ल	-10.5993
▁eggs	-10.5996
न▁के	-10.6
▁Good	-10.6001
cy	-10.6003
▁मौत	-10.6003
▁ಕ್ರೈಸ್ತ	-10.6004
▁London	-10.6005
▁घूम	-10.6006
▁develop	-10.6008
ेन	-10.6012
▁ವಿಭಾಗ	-10.6014
ಿಕೊಂಡಿದ್ದಾರೆ	-10.6017
▁यूरोप	-10.6018
rom	-10.602
▁में▁है	-10.602
▁ರೈತರು	-10.6023
मय	-10.6024
▁ಪುಸ್ತಕ	-10.6025
न्द	-10.6026
साथ	-10.6028
We	-10.6028
▁if▁we	-10.6029
ಲಿವೆ	-10.603
▁roof	-10.6033
▁ಕಾಮಗಾರಿ	-10.6033
▁articles	-10.6034
▁ತಮಿಳು	-10.6034
▁नही▁है	-10.6037
▁India▁has	-10.6038
▁only▁one	-10.6038
▁that▁was	-10.6039
▁परिस्थितियों	-10.604
▁used▁for	-10.6041
ाँ	-10.6041
▁these▁are	-10.6041
▁1990	-10.6042
cut	-10.6042
tter	-10.6043
▁जाल	-10.6043
▁मुंबई▁में	-10.6043
▁ದು	-10.6043
ರಾಗ	-10.6044
▁लेती▁है	-10.6045
▁ಬಿಡುಗಡೆ▁ಮಾಡ	-10.6046
▁पर▁भी	-10.6047
▁jail	-10.6048
▁ಅವರು▁ಹೇಳಿದರು	-10.6049
▁अंश	-10.605
▁involved	-10.6052
▁en	-10.6052
▁humans	-10.6053
▁totally	-10.6058
▁honour	-10.6058
▁dam	-10.606
▁to▁understand	-10.6061
▁ye	-10.6061
▁काम▁कर	-10.6064
.5	-10.6064
▁Ja	-10.6065
▁February	-10.6065
cha	-10.6065
गर	-10.6068
▁37	-10.6068
▁ऋषि	-10.6069
▁थी▁और	-10.607
16	-10.6071
▁का▁काम	-10.6074
म्ब	-10.6074
▁किये▁गये	-10.6075
▁ಪದ	-10.6075
▁code	-10.6075
“”.	-10.6082
▁had▁no	-10.6084
▁१०	-10.6084
▁आयी	-10.6085
▁leaves	-10.6085
ेस	-10.6086
ನಗರ	-10.6086
▁ज्ञात	-10.6087
▁खराब	-10.6088
▁कर▁लिया	-10.6088
▁ಸರಿಯಾದ	-10.6089
▁Chief	-10.609
▁सूक्ष्म	-10.6092
▁ಕೊಲೆ	-10.6092
▁ಮಾಡಿದರು	-10.6093
ುವಲ್ಲಿ	-10.6096
▁congregation	-10.6098
▁original	-10.6103
▁चि	-10.6105
▁खाना	-10.6111
▁The▁new	-10.6118
▁ಕೇ	-10.6119
▁failed	-10.6119
law	-10.612
▁districts	-10.6123
▁के▁अंदर	-10.6124
▁प्रभावित	-10.6125
ಲರ್	-10.6126
थित	-10.613
It	-10.613
▁पुनर्	-10.613
low	-10.613
so	-10.6131
▁Director	-10.6134
▁2002	-10.6137
▁rather	-10.6138
▁संविधान▁के	-10.6138
ॅ	-10.614
▁1000	-10.6141
▁break	-10.6142
▁ಮಾರುಕಟ್ಟೆ	-10.6142
▁ग्रन्थ	-10.6143
▁technical	-10.6143
▁1998	-10.6143
▁duties	-10.6143
▁वित्तीय	-10.6144
▁1930	-10.6144
्यु	-10.6145
▁हालत	-10.6145
▁भी▁नहीं	-10.6146
▁भाजपा	-10.615
▁would▁have	-10.6157
▁of▁her	-10.6159
▁ಎನ್ನ	-10.6161
▁very▁much	-10.6161
▁IPL	-10.6162
▁ಖಾನ್	-10.6166
pr	-10.6167
▁मोबाइल	-10.6169
▁तय	-10.6172
▁एकदम	-10.6175
▁filled	-10.6175
आन	-10.6177
▁है▁तो	-10.6178
▁ರಾತ್ರಿ	-10.6178
▁sp	-10.618
ंड़	-10.618
चार	-10.618
▁status	-10.6181
बाबू	-10.6183
▁scientists	-10.6184
▁stated	-10.6186
▁mode	-10.6186
▁birds	-10.6186
▁और▁उन	-10.6188
ಷನ್	-10.6189
▁sports	-10.619
▁ಎಂಜಿನ್	-10.6193
▁थी▁कि	-10.6193
▁कोऋ	-10.6194
▁need▁to▁be	-10.6196
▁rural	-10.6198
▁council	-10.6198
▁मस्जिद	-10.6198
ax	-10.6199
▁empire	-10.6199
▁होने▁की	-10.6199
▁बजट	-10.6199
▁साबित	-10.62
▁पूंजी	-10.62
▁विकल्प	-10.6201
▁ಮೇಲಿನ	-10.6202
▁नृत्य	-10.6202
t▁know	-10.6204
▁बहस	-10.6206
ನಿಂದ	-10.6206
▁ಹೀಗ	-10.6207
▁टे	-10.621
▁there▁was▁a	-10.621
▁जनसंख्या	-10.6212
▁includes	-10.6212
▁methods	-10.6215
▁और▁न▁ही	-10.6216
▁ಅಂಶ	-10.6216
▁ಕುಮಾರಸ್ವಾಮಿ	-10.6219
▁Dis	-10.6222
डऋ	-10.6224
▁ಮರ	-10.6225
▁What▁are▁the	-10.6225
▁शामिल▁हैं	-10.6227
▁42	-10.623
ृ	-10.6234
▁stars	-10.6234
▁at▁the▁time	-10.6235
▁संस्थान	-10.6237
▁all▁these	-10.6243
▁Dh	-10.6243
▁उतर	-10.6246
▁waste	-10.6247
▁sons	-10.6248
▁अंग्रेजों	-10.6251
▁Just	-10.6253
▁SMS	-10.6255
ದಲ್ಲೂ	-10.6256
▁देंगे	-10.6256
परिक	-10.6257
▁solar	-10.6257
▁ಸಂಗತಿ	-10.6257
▁अनुसंधान	-10.6257
▁jobs	-10.626
t▁have	-10.626
▁composed	-10.626
▁Sar	-10.6261
▁ಸ್ವೀಕರಿಸ	-10.6264
▁ಆಟ	-10.6267
सु	-10.6268
▁सिर्फ़	-10.6269
▁समझा	-10.6269
▁मस्तिष्क	-10.6274
▁ಮ್ಯಾ	-10.6274
▁sexual	-10.6279
‍ನಲ್ಲಿ	-10.6279
ಟು	-10.628
mal	-10.628
▁July	-10.6281
▁२०	-10.6282
▁ತರಬೇತಿ	-10.6283
▁ಪ್ರಕರಣ▁ದಾಖಲಿಸ	-10.6284
▁The▁main	-10.6286
ava	-10.6286
▁सागर	-10.6287
▁from▁his	-10.6291
▁देखें	-10.6292
▁करना▁चाहिए	-10.6293
▁November	-10.6294
▁नेतृत्व	-10.6297
▁letters	-10.6299
▁factors	-10.6302
▁Bi	-10.6302
णी	-10.6306
▁the▁third	-10.6309
▁प्रांत	-10.6309
▁knew	-10.631
▁weeks	-10.631
▁ಸಾವಿರ	-10.631
▁myself	-10.6311
▁1960	-10.6312
▁setting	-10.6313
▁हित	-10.6316
▁ಮೊಬೈಲ್	-10.6317
▁ಸ್ಪರ್ಧಿಸ	-10.6317
CC	-10.6317
▁feelings	-10.6317
▁group▁of	-10.6318
▁उत्सर्जन	-10.632
वल	-10.6321
▁7.	-10.6322
▁employees	-10.6322
▁ನೀಡಲಾಗಿದೆ	-10.6325
ಎಫ್	-10.6328
▁ಬಿಜೆಪಿಗೆ	-10.6328
▁to▁work	-10.6329
▁There▁was▁no	-10.6331
▁ಈ▁ಹಿಂದೆ	-10.6332
▁रि	-10.6332
▁existing	-10.6333
▁in▁it	-10.6335
▁grow	-10.6337
▁नाम▁से	-10.6338
▁Com	-10.634
▁उत्साह	-10.6342
▁ವಿಶ್ವಾಸ	-10.6343
▁ಹೋಗಿ	-10.6346
▁Hindu▁religion	-10.6346
▁ವಿಶ್ವದ	-10.6347
।”	-10.6347
▁पूरी▁तरह▁से	-10.6349
▁वा	-10.6349
▁खुश	-10.6351
▁>	-10.6355
▁task	-10.6355
▁display	-10.6357
▁जम	-10.6361
▁as▁they	-10.6362
▁po	-10.6362
litre	-10.6363
▁फ़िल्म	-10.6367
▁a▁long	-10.6367
▁ರಾಹುಲ್	-10.6367
▁वकील	-10.6367
▁ಪರಸ್ಪರ	-10.6367
▁प्रतिदिन	-10.6368
▁employment	-10.6368
▁‘‘	-10.6368
ದ್ಧ	-10.6368
▁बच्चों▁को	-10.6369
▁entry	-10.637
▁ಸಂದೇಶ	-10.6371
▁प्रारंभिक	-10.6371
▁chance	-10.6373
▁looks	-10.6373
ight	-10.6374
ina	-10.6375
▁inspired	-10.6377
▁starting	-10.6382
▁lead▁to	-10.6383
▁letter	-10.6383
▁योग्य	-10.6384
▁ವಿಷಯದಲ್ಲಿ	-10.6384
▁Sur	-10.6386
▁गाय	-10.6387
▁ಭಾಗವಹಿಸ	-10.6391
▁दृष्टिकोण	-10.6392
▁वाद्य	-10.6393
▁the▁body	-10.6393
▁चू	-10.64
▁participated▁in	-10.64
▁हटा	-10.64
▁ಮಕ್ಕಳಿಗೆ	-10.6401
र्ड	-10.6402
▁तरीका	-10.6402
▁I▁want▁to	-10.6405
▁ರಕ್ಷಣೆ	-10.6406
▁December	-10.6406
▁Devi	-10.6407
▁this▁position	-10.6407
▁दक्षिणी	-10.6408
▁make▁a	-10.6409
▁ರೆ	-10.641
यु	-10.641
▁कलकत्ता	-10.6412
▁perfect	-10.6413
▁if▁they	-10.6415
▁ಕಾರ್ಯನಿರ್ವಹಿಸ	-10.6416
ರಂದು	-10.6417
▁crisis	-10.6418
▁im	-10.6421
बे	-10.6421
▁Israel	-10.6423
०००	-10.6424
▁धातु	-10.6424
▁description	-10.6424
▁devotion	-10.6424
▁महाराष्ट्र	-10.6424
▁ಮತ್ತಷ್ಟು	-10.6424
▁Out	-10.6425
▁Road	-10.6425
▁developing	-10.6427
▁revealed	-10.6429
▁उनमें▁से	-10.6431
▁has▁no	-10.6432
ಳ್ಳ	-10.6433
▁चिंता	-10.6433
▁every▁day	-10.6434
▁climate	-10.6434
▁ಪಾಪ	-10.6436
▁44	-10.644
े▁गए	-10.644
▁बच	-10.6442
▁तथा▁अन्य	-10.6442
▁सहायक	-10.6443
▁बुनियादी	-10.6444
ास	-10.6446
▁ಕಟ್ಟಡ	-10.6448
▁ನೆ	-10.6448
ru	-10.645
▁असल▁में	-10.645
▁त्रि	-10.6451
ा▁जाता▁है	-10.6451
mp	-10.6451
▁numbers	-10.6452
▁unique	-10.6454
▁लें	-10.6454
▁elements	-10.6455
▁the▁word	-10.6457
ಯ್	-10.6457
▁देर	-10.6466
ದ್ದೇ	-10.6467
▁ಹಿಂದೂ	-10.6468
▁what▁we	-10.6471
93	-10.6477
▁ಬಂದು	-10.6477
▁से▁निकल	-10.6478
▁vi	-10.648
▁शारीरिक	-10.6481
▁Four	-10.6482
▁के▁बाहर	-10.6482
▁ಯಾವಾಗ	-10.6483
▁दाव	-10.6485
▁कुछ▁भी	-10.6487
▁अतः	-10.6489
▁of▁your	-10.6491
▁पारित	-10.6494
▁and▁even	-10.6495
▁October	-10.6503
ನನ್ನ	-10.6506
ಧಿ	-10.6508
ology	-10.6509
▁no▁longer	-10.6509
▁द्वार	-10.651
▁conference	-10.6512
▁spoke	-10.6512
▁]	-10.6513
▁Fro	-10.6515
▁ಹೆಸರ	-10.6517
▁h	-10.652
▁ಸರ	-10.6524
▁जून	-10.6526
▁to▁use	-10.6528
▁वर्षों▁में	-10.6529
क़	-10.653
▁ऑफ	-10.6532
▁limit	-10.6535
षऋ	-10.6536
▁परीक्षण	-10.6538
▁Power	-10.6538
▁architecture	-10.6539
▁pictures	-10.6539
▁ಬದಲಾಯಿಸ	-10.6539
▁ch	-10.6539
▁Food	-10.654
▁category	-10.654
▁facing	-10.6543
▁ನಿಯಂತ್ರಣ	-10.6543
▁ಫಲ	-10.6544
▁लिखित	-10.6544
▁Bihar	-10.6546
▁पालन	-10.6546
73	-10.6546
वह	-10.6548
▁who▁have	-10.6548
▁also▁present	-10.6551
▁wanted	-10.6554
▁appeared	-10.6555
▁ಇಬ್ಬರೂ	-10.6557
▁Lal	-10.6558
▁लगों	-10.6558
▁वेतन	-10.6559
ना▁चाहते▁हैं	-10.656
▁ಅಷ್ಟೇ	-10.6562
▁कुमार	-10.6562
▁बहुमत	-10.6563
▁net	-10.6563
▁introduced	-10.6563
▁railway	-10.6564
end	-10.6565
▁पेड़	-10.6566
▁ಪುತ್ರ	-10.6567
▁the▁man	-10.6567
▁Its▁not	-10.6568
ी▁गई	-10.6569
ೋ	-10.657
▁Ya	-10.6571
▁MLAs	-10.6571
▁की▁वजह▁से	-10.6575
▁thy	-10.6575
ियर	-10.6583
ಾರ್ಥ	-10.6584
▁a▁person	-10.6585
▁vehicle	-10.6586
▁provisions	-10.6587
▁this▁time	-10.6587
ो▁में	-10.6588
▁larger	-10.6588
▁ಇಡ	-10.6589
▁between▁the▁two	-10.659
▁command	-10.6591
▁models	-10.6592
▁served	-10.6593
▁Ramayana	-10.6594
▁Social	-10.6594
▁laid	-10.6595
▁resolution	-10.6596
▁Will	-10.6596
▁Police▁Station	-10.6597
▁everybody	-10.6598
▁perform	-10.6601
▁Western	-10.6602
▁ಸಂಪೂರ್ಣವಾಗಿ	-10.6602
▁attacked	-10.6602
▁ಹಕ್ಕು	-10.6602
▁पड़े	-10.6602
ably	-10.6603
▁ತಿಳಿಸಿದೆ	-10.6603
▁ಹಬ್ಬ	-10.6604
ರಿಯ	-10.6605
▁ಸುಪ್ರೀಂ▁ಕೋರ್ಟ್	-10.6606
▁रेडियो	-10.6607
▁की▁कमी	-10.661
AR	-10.6611
▁was▁born	-10.6612
▁ಬಂದಿದೆ	-10.6618
▁मिलती▁है	-10.662
▁entirely	-10.6621
▁pass	-10.6621
▁Telugu	-10.6622
-1	-10.6623
▁in▁these	-10.6624
af	-10.6624
▁कऋ	-10.6625
▁0.	-10.6626
▁ग्रह	-10.6627
▁ಕೇಳಿ	-10.6629
▁filed	-10.6631
▁शि	-10.6632
ೆಂದು	-10.6635
▁ಉದಾಹರಣೆ	-10.6635
▁patients	-10.6635
ata	-10.6635
ಾಂಶ	-10.6637
▁ಒಪ್ಪ	-10.6638
▁सकते	-10.6645
▁ಹಾಡ	-10.6647
ಜನ	-10.6649
▁ಆಸ್ಟ್ರೇಲಿಯಾ	-10.665
▁स्वीकार	-10.6651
▁निर्	-10.6653
▁smaller	-10.6654
▁हथियार	-10.6654
▁विद्रोह	-10.6654
▁Conference	-10.6654
▁ತೆಲುಗು	-10.6654
▁मकान	-10.6655
▁evil	-10.6656
▁September	-10.6658
▁ವ್ಯಾಪಾರ	-10.666
▁phase	-10.666
▁Vedic	-10.6661
▁ನೀಡುವ	-10.6661
ेश	-10.6662
▁दर्शक	-10.6664
▁ವಿಜ್ಞಾನ	-10.6664
▁made▁a	-10.6665
ಟ್ಟು	-10.6666
▁ಬಾಲಿವುಡ್	-10.6666
▁terrorist	-10.6667
ಿದ್ದಾಳೆ	-10.6667
आर	-10.6668
▁offering	-10.6671
▁आर्य	-10.6673
▁ಕಾರ್ಯಾಚರಣೆ	-10.6678
▁interests	-10.6681
▁शर्त	-10.6681
▁opening	-10.6682
▁Internet	-10.6684
्ट	-10.6686
▁theory	-10.6687
द्द	-10.6687
▁no▁one	-10.6689
▁blue	-10.669
▁showed	-10.6691
▁ಯೋಚಿಸ	-10.6692
▁.▁?	-10.6694
ದಾ	-10.6695
▁screen	-10.6696
▁the▁other▁hand	-10.6699
▁ನಿರ್	-10.6699
▁ಅಮಿತ್▁ಶಾ	-10.6701
▁Class	-10.6703
▁probe	-10.6705
▁ಮಹಿಳೆಯರು	-10.6706
▁regions	-10.6706
▁श्रृंखला	-10.6706
▁दोनो	-10.6707
ray	-10.6708
ರೊ	-10.6708
ಬಹುದಾಗಿದೆ	-10.6708
▁चिकित्सा	-10.671
▁tree	-10.6711
▁इन्होंने	-10.6713
▁ವಾರ	-10.6713
▁Marathi	-10.6714
▁the▁fact▁that	-10.6714
▁transfer	-10.6714
▁पृथक	-10.6715
▁cash	-10.6716
▁से▁अलग	-10.6716
▁उतार	-10.6718
ho	-10.6718
▁invited	-10.6718
▁dangerous	-10.6719
हम	-10.6719
▁aim	-10.6724
ju	-10.6726
ಿರಬಹುದು	-10.6727
▁foot	-10.673
▁जड़	-10.673
▁ಮಾರುಕಟ್ಟೆಯಲ್ಲಿ	-10.6731
▁reaction	-10.6731
par	-10.6733
▁ಸ್ಟಾರ್	-10.6734
▁पहुंचा	-10.6735
▁observed	-10.6736
▁वर्षों	-10.6738
e▁the	-10.6739
35	-10.6743
▁starts	-10.6744
▁के▁पूर्व	-10.6745
▁Sh	-10.6748
▁गृह	-10.6749
▁में▁बदल	-10.675
▁measure	-10.675
▁genes	-10.6752
▁योग	-10.6753
▁रास्ता	-10.6754
▁double	-10.6755
▁seriously	-10.6757
▁ವಿವರ	-10.6758
▁ಬರೆಯ	-10.6759
▁ಅಧಿಕೃತ	-10.6759
▁दिया▁गया▁है	-10.6761
▁a▁special	-10.6761
▁count	-10.6764
▁ಫೋನ್	-10.6764
▁danger	-10.6766
▁extended	-10.6766
▁cabinet	-10.6768
ಿಸುತ್ತದೆ	-10.6768
▁कभी▁भी	-10.6769
▁इसी▁तरह	-10.6769
▁ಎನ್ನುವ	-10.6769
▁judicial	-10.677
▁ಯಡಿಯೂರಪ್ಪ	-10.6772
▁फरवरी	-10.6772
▁ಅಲ್ಲದೇ	-10.6772
▁झील	-10.6772
▁ನಿನಗೆ	-10.6772
▁Gupta	-10.6772
▁नहीं▁होती	-10.6773
▁ವಿನ್ಯಾಸ	-10.6773
▁plain	-10.6774
▁ಆದಾಯ	-10.6774
ವಂತ	-10.6774
भाव	-10.6776
▁Je	-10.6776
▁ಗಳಲ್ಲಿ	-10.6776
▁the▁latter	-10.6777
▁penis	-10.6778
▁ಗುಣ	-10.6779
▁ಕೇರಳ	-10.678
▁ಪಾಕ್	-10.6782
▁catch	-10.6783
▁tool	-10.6783
▁El	-10.6783
▁आधार▁पर	-10.6785
▁movies	-10.6785
▁होनी▁चाहिए	-10.6788
▁machine	-10.6789
ियम	-10.6789
ುತ್ತೀರಿ	-10.679
▁सरकार▁की	-10.6792
▁ಮಾಡಿಲ್ಲ	-10.6792
▁Bangladesh	-10.6794
▁दोनों▁ही	-10.6797
3)	-10.68
▁the▁earth	-10.6801
33	-10.6803
es▁and	-10.6804
aka	-10.6808
दूसरे	-10.6809
▁इंटरनेट	-10.6811
▁when▁we	-10.6812
▁ದೇವಾಲಯ	-10.6813
ತಾನು	-10.6814
▁ಹುಡುಕ	-10.6815
ಂಜ	-10.6816
▁treated	-10.6818
▁which▁has	-10.6818
▁विशेषज्ञ	-10.6821
▁ने▁भी	-10.6822
बार	-10.6823
▁and▁all	-10.6827
▁western	-10.683
▁नहीं▁थे	-10.683
▁संयुक्त▁राज्य	-10.683
▁ಪಾಕಿಸ್ತಾನದ	-10.6831
▁अप्रैल	-10.6831
▁प्रदूषण	-10.6831
▁पीढ़ी	-10.6831
▁his▁son	-10.6832
▁ಪ್ರವಾಹ	-10.6832
▁effects	-10.6833
▁is▁considered	-10.6834
▁claimed	-10.6836
▁Ji	-10.6836
▁ಇಂದು	-10.6838
▁ಇದಕ್ಕಾಗಿ	-10.6841
कुल	-10.6844
▁his▁wife	-10.6844
▁ಊಟ	-10.6847
▁to▁win	-10.6849
▁ನಿರ್ವಹಿಸ	-10.6849
▁fans	-10.685
▁ನಮಗ	-10.685
▁हो▁या	-10.6851
▁lie	-10.6852
▁the▁two	-10.6855
▁अधि	-10.6855
▁ಗಳಿಸ	-10.6856
▁wants	-10.6857
▁ad	-10.6859
▁पंख	-10.686
र्थ	-10.686
ವಾಗಿವೆ	-10.6861
ಮೀ	-10.6861
▁इसी▁प्रकार	-10.6864
▁वेब	-10.6869
▁ಕೀ	-10.6871
▁ಆಸ್ಪತ್ರೆ	-10.6871
ती▁थी	-10.6876
▁ಹಿಂದಿ	-10.6877
▁because▁of▁the	-10.6877
s▁which	-10.6879
▁looking	-10.688
▁गोल	-10.688
▁कार्यवाही	-10.6882
▁Calcutta	-10.6883
▁balance	-10.6883
▁Russia	-10.6883
फा	-10.6885
▁ಬೆಳೆಯ	-10.6886
ger	-10.6888
▁June	-10.6889
▁As▁a▁result	-10.6891
▁Art	-10.6891
▁understood	-10.6892
▁Sun	-10.6892
್ಯೂ	-10.6892
▁के▁विषय▁में	-10.6893
▁मान्यता	-10.6894
▁65	-10.6897
▁ಸುತ್ತ	-10.6901
wal	-10.6903
▁पात्र	-10.6905
▁ಈ▁ವೇಳೆ	-10.6905
90	-10.6908
▁ಪ್ರಧಾನಮಂತ್ರಿ	-10.6908
▁discuss	-10.6909
▁Pan	-10.691
▁शोर	-10.6912
एल	-10.6912
▁is▁it	-10.6914
ನ್ನೇ	-10.6914
▁object	-10.6914
ೀಕರಣ	-10.6919
लि	-10.6921
ेश्वर	-10.6923
▁Asia	-10.6926
ಷಾ	-10.6928
▁in▁my	-10.6928
▁The▁Government	-10.6933
▁please	-10.6936
न्ड	-10.6937
▁बचा	-10.6938
39	-10.694
ward	-10.694
▁55	-10.6942
▁When▁the	-10.6943
े▁साथ	-10.6944
▁रेखा	-10.6945
▁के▁निर्माण	-10.6947
▁जिस▁पर	-10.6948
▁Iran	-10.6948
▁This▁will	-10.695
▁सुझाव	-10.6951
▁वर्षा	-10.6951
▁teeth	-10.6951
▁अगल	-10.6952
▁sta	-10.6955
▁ನಿಜವಾಗಿಯೂ	-10.6955
▁symptoms	-10.6958
गे	-10.696
▁loved	-10.696
▁sure	-10.6961
▁explained	-10.6962
▁box	-10.6962
▁Rao	-10.6962
ों▁के▁कारण	-10.6965
▁सुख	-10.6967
▁ವ್ಯವಹಾರ	-10.697
▁अंदर	-10.6972
▁ಸಂಸದ	-10.6976
rd	-10.6978
▁कमर	-10.6984
▁एक▁दिन	-10.6984
▁ವಿದ್ಯಾರ್ಥಿಗಳ	-10.6984
▁say▁that	-10.6984
ವಾಗಿಲ್ಲ	-10.6986
▁is▁to	-10.6986
▁the▁highest	-10.6987
ಟ್ಟಿ	-10.6988
▁ವಿಜಯ	-10.6989
▁distance	-10.699
लू	-10.6992
rat	-10.6992
▁प्रथा	-10.6993
ता▁का	-10.6994
ery	-10.6995
▁joined	-10.6995
▁confidence	-10.6996
▁नजर	-10.6997
▁which▁the	-10.7
ರ್ಸ್	-10.7
▁adopted	-10.7002
oy	-10.7003
▁needs▁to▁be	-10.7006
▁But▁he	-10.7007
▁pr	-10.7009
▁शासक	-10.701
▁Group	-10.701
▁learned	-10.701
▁constituency	-10.7011
▁World▁Cup	-10.7011
▁of▁the▁House	-10.7011
▁And▁we	-10.7011
ory	-10.7011
▁1980	-10.7012
▁माध्यम	-10.7013
▁on▁the▁basis	-10.7014
▁pick	-10.7014
▁सारा	-10.7015
▁enter	-10.7015
▁स्तंभ	-10.7017
ಂತೂ	-10.7018
▁सरकार▁के	-10.702
▁save	-10.702
▁ವೈಯಕ್ತಿಕ	-10.7021
ber	-10.7021
▁ಅಪ	-10.7021
▁January	-10.7022
▁variety▁of	-10.7026
▁is▁this	-10.7027
▁चुनौती	-10.7027
s▁first	-10.703
▁मानसिक	-10.7031
ಲೋ	-10.7031
▁destroyed	-10.7032
▁Bible	-10.7032
▁राज्यपाल	-10.7033
▁acts	-10.7034
▁Of	-10.7035
▁ಮೈತ್ರಿ	-10.7036
▁ಪಡ	-10.7037
▁निकट	-10.7039
ಟೊ	-10.7039
▁संत	-10.7039
▁The▁state	-10.704
▁patient	-10.7043
▁1,	-10.7046
▁ऋस	-10.7048
▁नहीं▁बल्कि	-10.705
▁constructed	-10.705
▁pen	-10.705
▁search	-10.7051
▁Second	-10.7052
▁Is▁it	-10.7052
ut	-10.7053
▁votes	-10.7059
77	-10.7059
▁मुद्रा	-10.7059
▁ता	-10.706
▁demands	-10.7061
▁उपस्थित	-10.7065
dy	-10.7065
▁mental	-10.7066
▁इस▁बारे▁में	-10.7069
▁अर्जुन	-10.707
▁तीव्र	-10.7071
▁along	-10.7071
dh	-10.7073
▁इक	-10.7073
▁wedding	-10.7073
▁broken	-10.7074
ved	-10.7074
▁proposed	-10.7074
▁floor	-10.7075
▁the▁end	-10.7076
▁रही▁थी	-10.7076
▁ಸಿಬಿಐ	-10.7077
RI	-10.7077
▁ಇಂಗ್ಲೆಂಡ್	-10.7079
▁sold	-10.7082
▁चुके▁हैं	-10.7082
▁2006	-10.7085
ाद	-10.7089
▁की▁जा▁सकती▁है	-10.7089
▁साम्राज़्यवाद	-10.709
,”	-10.709
ियों▁और	-10.7096
▁with▁this	-10.7096
▁१२	-10.7097
ಪು	-10.7097
▁छात्र	-10.7099
▁crime	-10.71
▁regional	-10.7105
▁diseases	-10.7108
▁आनुवंशिक	-10.7109
▁ಪ್ರಚಾರ	-10.7109
पि	-10.7117
▁नर	-10.712
▁ಸೋ	-10.712
▁प्रकार▁की	-10.7121
ा▁जा▁सकता▁है	-10.7121
▁formal	-10.7122
ita	-10.7122
q	-10.7123
ging	-10.7126
▁options	-10.7126
▁वस्तुओं	-10.7126
▁ಎಂದೂ	-10.7128
▁कोशिकाओं	-10.7128
▁ಸೂಚಿಸ	-10.713
द्	-10.7132
▁Opposition	-10.7132
▁expansion	-10.7132
thi	-10.7132
▁aircraft	-10.7132
▁everywhere	-10.7133
▁स्वस्थ	-10.7133
▁ಪ್ರತಿಯೊಂದು	-10.7133
▁that▁a	-10.7133
▁proposal	-10.7134
▁अधिवेशन	-10.7136
▁to▁change	-10.7136
▁आल	-10.7138
▁drive	-10.714
ps	-10.7141
▁में▁वृद्धि	-10.7142
▁noise	-10.7143
▁ಭಾವನೆ	-10.7144
▁आसानी▁से	-10.7145
▁2003	-10.7149
▁शाह	-10.7149
▁के▁अधिकार	-10.7152
ability	-10.7153
▁Ravi	-10.7155
▁radio	-10.7155
den	-10.7155
▁देशों▁में	-10.7156
▁ಪಂದ್ಯದಲ್ಲಿ	-10.7158
24	-10.7158
न▁और	-10.7162
▁वैदिक	-10.7162
▁ದಾ	-10.7165
▁लोगों▁का	-10.7165
▁हूं	-10.7168
▁या▁तो	-10.7172
▁Ki	-10.7173
▁This▁is▁not	-10.7173
long	-10.7174
▁ಸಮಾಜ	-10.7176
▁ಸದಸ್ಯರು	-10.7176
▁lived	-10.7176
▁if▁it	-10.7178
निक	-10.7178
▁fruit	-10.7178
appa	-10.7179
▁ರೂಪಾಯಿ	-10.7179
▁significant	-10.718
▁प्रतिभा	-10.7182
▁ನೇತೃತ್ವದ	-10.7183
▁के▁बिना	-10.7183
▁देखकर	-10.7183
s▁and▁the	-10.7184
ons	-10.7185
▁Yadav	-10.7185
▁to▁live	-10.7185
▁her▁husband	-10.7188
▁निर्वाचन	-10.7188
▁adequate	-10.7189
खा	-10.719
▁ನಗರದ	-10.7191
▁morning	-10.7191
▁values	-10.7193
▁मंत्रिपरिषद	-10.7193
▁Vajpayee	-10.7193
▁memory	-10.7195
▁अवधि	-10.7196
▁prominent	-10.7197
▁ಎಂದರೆ	-10.7197
▁meant	-10.7197
▁रोगी	-10.7197
▁ಆಗಿತ್ತು	-10.7198
▁approved	-10.7199
▁ಬಿಸಿ	-10.72
फ़ी	-10.7201
▁की▁भावना	-10.7203
▁गहरा	-10.7204
▁achieved	-10.7205
▁wish	-10.7206
▁celebrated	-10.7207
▁ಹೇಳಿ	-10.7208
घर	-10.721
gen	-10.721
▁used▁in	-10.7211
▁might▁be	-10.7211
ियत	-10.7212
▁ನೀಡಿದ್ದಾರೆ	-10.7219
▁दबाव	-10.7219
▁Best	-10.722
▁or▁more	-10.7221
▁wonder	-10.7223
▁ದಾರಿ	-10.7223
▁calls	-10.7223
▁लगी	-10.7223
RS	-10.7223
▁try▁to	-10.7224
▁Look	-10.7224
िज	-10.7225
▁admitted	-10.7226
▁Far	-10.7226
ದರ	-10.7226
▁के▁सदस्य	-10.7227
▁minutes	-10.7231
▁देखते▁हैं	-10.7233
▁ಒತ್ತಡ	-10.7234
▁सम्मिलित	-10.7235
▁गल	-10.7235
ple	-10.7237
▁block	-10.7239
▁cha	-10.7239
▁ಸೇ	-10.7239
▁के▁मुताबिक	-10.7241
According▁to▁the	-10.7244
▁to▁pay	-10.7246
ME	-10.7248
▁लेट	-10.7249
▁सब▁कुछ	-10.7249
▁Office	-10.7251
▁ಕೆಟ್ಟ	-10.7251
▁ಲೋಕ	-10.7253
▁क्या▁आप	-10.7255
▁खींच	-10.7255
▁गया▁था	-10.7256
▁when▁I	-10.7256
▁There▁are▁many	-10.7258
ून	-10.7259
शी	-10.7262
गो	-10.7266
▁पाठ	-10.7267
▁witness	-10.7269
▁terms	-10.7269
▁ಅಂತ್ಯ	-10.7269
He	-10.7269
s▁on▁the	-10.7271
▁warm	-10.7272
▁Goa	-10.7277
14	-10.7279
▁कहाँ	-10.728
▁कि▁मैं	-10.7281
ನಾಗಿ	-10.7282
▁ಅದಕ್ಕಾಗಿ	-10.7282
▁आपस	-10.7283
▁deal	-10.7288
▁5.	-10.7292
▁photo	-10.7293
ರಾಜ	-10.7294
east	-10.7294
ಷಿ	-10.7296
ಯಲ್ಲಿರುವ	-10.7296
IC	-10.7298
▁शिक्षक	-10.7299
▁with▁their	-10.7304
pal	-10.7305
▁ಗಂಭೀರ	-10.7305
AN	-10.7306
▁a▁year	-10.7308
▁कर▁सकती▁है	-10.7311
▁और▁अ	-10.7312
▁और▁न	-10.7313
▁scene	-10.7315
▁mark	-10.7317
▁wanted▁to	-10.7317
▁घरेलू	-10.7317
▁प्रजनन	-10.7317
▁French	-10.7317
▁शास्त्र	-10.7317
▁ಆಸ್ತಿ	-10.7318
▁summer	-10.7318
▁मूर्ति	-10.7318
endra	-10.7318
▁ರಕ್ತ	-10.732
▁ಅಸ	-10.732
▁ensure	-10.732
▁शताब्दी	-10.7321
▁बुद्ध	-10.7321
▁to▁play	-10.7321
▁opposed	-10.7321
▁Sri▁Lanka	-10.7322
▁खुल	-10.7323
ೊಬ್ಬ	-10.7325
▁severe	-10.7325
▁सां	-10.733
ada	-10.7331
▁Use	-10.7333
▁palace	-10.7334
▁महसूस	-10.7338
▁hall	-10.7339
▁ಸೇರ	-10.734
▁तत्काल	-10.7342
ಮನ್	-10.7346
uri	-10.7347
▁spend	-10.735
▁atmosphere	-10.735
तक	-10.735
▁नियंत्रित	-10.7351
iah	-10.7351
▁पूछ	-10.7353
▁towards▁the	-10.7353
▁बल्लेबाजी	-10.7355
▁Sub	-10.7356
▁we▁will	-10.7357
▁them▁to	-10.7357
▁ಕಾರ	-10.7358
▁Das	-10.736
▁फैल	-10.736
ों▁में▁से	-10.7361
pt	-10.7361
▁6.	-10.7365
▁behind▁the	-10.7367
▁से▁यह	-10.7368
▁bi	-10.7368
▁answers	-10.7369
▁attitude	-10.737
▁बांध	-10.7371
ತ್ರ	-10.7373
▁subjects	-10.7373
ing▁for	-10.7377
र्द	-10.7377
▁मॉडल	-10.7379
▁ಟೀಂ▁ಇಂಡಿಯಾ	-10.738
▁ceremony	-10.738
▁बराबर	-10.738
▁संचार	-10.7383
▁स्थिति▁में	-10.7384
▁Any	-10.7385
▁मामलों	-10.7385
▁ಗೊತ್ತಿಲ್ಲ	-10.7386
▁Sen	-10.7388
▁objective	-10.7388
मैं	-10.739
ಯಂತೆ	-10.7392
▁ಅಧಿಕಾರಿಗಳ	-10.7393
side	-10.7398
▁पत्रिका	-10.7398
▁ಅಂಥ	-10.7403
▁ಕೃಷ್ಣ	-10.7403
▁उपर	-10.7403
▁sort▁of	-10.7404
▁cool	-10.7404
▁Kh	-10.7405
▁of▁my	-10.7406
ants	-10.7406
▁ಬಲಿ	-10.7411
▁sad	-10.7412
▁avoid	-10.7417
▁ಅಂಗ	-10.7419
▁table	-10.7421
▁गुफा	-10.7424
▁mandapa	-10.7424
▁Chinese	-10.7426
अलग	-10.7427
▁ಧ	-10.7427
ದನ್ನು	-10.7432
▁and▁S	-10.7435
ಮೆಂಟ್	-10.7438
▁मजदूर	-10.744
▁So▁I	-10.7441
▁स्वीकृति	-10.7441
▁श्लोक	-10.7442
▁blind	-10.7443
▁existence	-10.7443
▁sacrifice	-10.7444
▁hindi	-10.7444
▁पाए	-10.7447
▁ದೋಷ	-10.7449
▁ಜಮ್ಮು	-10.745
▁forget	-10.745
vel	-10.745
▁for▁that	-10.7451
ily	-10.7453
ಝ	-10.7455
▁स्थायी	-10.7456
▁Its▁a	-10.7456
▁Guru	-10.7457
▁investigating	-10.7458
oc	-10.7459
▁when▁it	-10.746
▁ರೇ	-10.7461
▁they▁had	-10.7462
▁people▁are	-10.7463
▁ಆಸಕ್ತಿ	-10.7463
▁essential	-10.7464
▁prayer	-10.7466
ುತ್ತಿದ್ದು	-10.7467
▁ಏಕ	-10.7467
▁शुरु	-10.7468
▁seeking	-10.7471
22	-10.7473
▁आगे▁बढ़	-10.7473
ेगी	-10.7475
▁Siva	-10.7481
▁विश्व▁में	-10.7487
▁wicket	-10.7488
▁welcome	-10.749
▁genetic	-10.7492
▁MLA	-10.7493
▁st	-10.7494
▁Pakistani	-10.7496
▁और▁अपने	-10.7496
▁via	-10.7496
▁ಸರಣಿ	-10.7497
▁ಮಲ	-10.7497
▁रखने	-10.7497
ಗಳಿಗಾಗಿ	-10.75
▁Shetty	-10.7506
▁शिश्न	-10.7506
▁intellectual	-10.7506
▁Reddy	-10.7507
▁की▁मात्रा	-10.7508
▁जु	-10.7509
▁Se	-10.7511
▁novel	-10.7512
▁हमे	-10.7514
▁sides	-10.7514
▁of▁those	-10.7515
▁Home▁Minister	-10.7516
tr	-10.7517
▁हो▁गए	-10.7518
▁ಹೋ	-10.7519
▁दुर्घटना	-10.7519
▁ಮಗ	-10.752
▁ವಿದ್ಯಾರ್ಥಿಗಳಿಗೆ	-10.7523
दु	-10.7524
▁ಕ್ಲ	-10.7525
▁not▁to	-10.753
ङ	-10.7534
▁partner	-10.7535
ने▁को	-10.7536
▁mission	-10.7536
चित	-10.7537
ವಾಡ	-10.7538
her	-10.7539
▁willing	-10.754
▁स्थानों▁पर	-10.7541
▁highest	-10.7543
▁The▁two	-10.7547
▁to▁become	-10.7547
▁Election	-10.7548
▁शिकार	-10.7551
रानी	-10.7551
▁you▁will	-10.7554
if	-10.7556
▁ಮೌಲ್ಯ	-10.7557
ations	-10.7558
ದ್ಯ	-10.7558
tar	-10.756
92	-10.7561
▁Air	-10.7561
▁ended	-10.7561
▁because▁they	-10.7562
▁ಕೇಂದ್ರ▁ಸರ್ಕಾರ	-10.7562
▁शुद्ध	-10.7563
▁यु	-10.7563
und	-10.7564
ती▁हूँ	-10.7564
▁store	-10.7566
▁or▁not	-10.7568
▁survey	-10.7569
▁facility	-10.7569
▁machinery	-10.757
▁रखते▁हैं	-10.7571
yan	-10.7571
▁8.	-10.7571
ज्ञ	-10.7576
▁clothes	-10.7576
▁के▁मध्य	-10.7577
▁fo	-10.7577
▁आरोप	-10.7579
▁We▁need	-10.7582
ಯವರು	-10.7583
▁उर्दू	-10.7584
▁रू	-10.7585
▁girls	-10.7585
ರಾಗಿದ್ದರು	-10.7585
▁to▁find	-10.7585
▁rejected	-10.7589
ना▁और	-10.759
▁killing	-10.7592
▁देखने	-10.7594
▁बनाने▁के▁लिए	-10.7595
र्त	-10.7603
▁करता▁था	-10.7603
▁की▁स्थिति	-10.7604
▁शुरुआत	-10.761
▁हाँ	-10.7612
▁ಶೋ	-10.7612
ಿಂದಲೂ	-10.7616
▁in▁Karnataka	-10.7616
▁executive	-10.7618
▁in▁one	-10.7618
▁त्याग	-10.7621
▁प्रयत्न	-10.7622
▁explain	-10.7623
▁दोस्त	-10.7623
ುವುದ	-10.7624
▁हाथी	-10.7626
ese	-10.7629
▁Kolkata	-10.7632
▁Film	-10.7633
▁policies	-10.7633
▁ಜಾಗತಿಕ	-10.7634
▁desert	-10.7634
▁leaving	-10.7634
▁नवंबर	-10.7634
▁submitted	-10.7634
▁rising	-10.7634
▁अमरीका	-10.7635
▁telephone	-10.7636
▁Ga	-10.7636
▁sight	-10.7637
▁ಪ್ರಥಮ	-10.7638
▁title	-10.7638
▁कहा▁कि	-10.7639
▁epic	-10.7643
▁ವ್ಯಾ	-10.7643
▁प्रधान	-10.7647
ಲೀ	-10.7648
▁ಶಾಸಕ	-10.7649
▁begin	-10.765
ಿರಬೇಕು	-10.7651
▁But▁what	-10.7651
▁commission	-10.7652
▁I▁can	-10.7653
▁in▁her	-10.7654
▁गया▁है	-10.7656
▁ಮುಕ್ತ	-10.7656
▁cover	-10.7656
ेर	-10.7656
▁walk	-10.7658
▁Cabinet	-10.7658
▁to▁come	-10.7659
शास्त्र	-10.7659
▁covered	-10.7659
▁I▁would	-10.766
▁broad	-10.7667
▁Tata	-10.7668
76	-10.767
ED	-10.7672
▁metal	-10.7673
▁ನವ	-10.7676
▁अमिताभ	-10.7676
वहन	-10.7676
▁plays	-10.7677
ಸರ	-10.7681
▁संबंधित	-10.7683
▁चे	-10.7684
ंभ	-10.7685
▁ನಡೆಸಿದ	-10.7687
स्वरूप	-10.7687
▁तुरंत	-10.7689
form	-10.7691
▁passengers	-10.7691
▁I▁said	-10.7691
मार	-10.7691
ल्ट	-10.7692
पूर	-10.7693
▁ಗುಜರಾತ್	-10.7693
▁taught	-10.7696
que	-10.7697
▁connect	-10.7698
▁university	-10.7699
▁ऊंट	-10.7699
▁Brahman	-10.7701
▁भुगतान	-10.7702
▁तीसरे	-10.7702
ಮುಖ	-10.7702
▁का▁यह	-10.7702
यक	-10.7703
▁आलोचना	-10.7706
coming	-10.7707
pan	-10.7708
▁deaths	-10.7709
▁funds	-10.7711
▁दूसरी▁ओर	-10.7711
फल	-10.7711
▁800	-10.7715
▁bringing	-10.7716
ಪತಿ	-10.7716
ೊಳಗೆ	-10.7718
▁Mi	-10.772
ಿಕೊಂಡು	-10.7723
▁ಕೊನೆಯ	-10.7725
पट	-10.7727
▁स्वामी	-10.7727
▁called▁as	-10.7727
▁Nagar	-10.7727
▁ಪ್ರತ್ಯೇಕ	-10.7729
ular	-10.7734
▁ಕಾಣಿಸಿಕೊಂಡ	-10.7734
▁ideal	-10.7738
▁41	-10.7738
▁harm	-10.7738
▁ಪ್ರಾ	-10.7739
kha	-10.774
▁ಇಟ್ಟ	-10.7743
▁in▁the▁field	-10.7744
▁शिशु	-10.7749
▁branch	-10.7749
▁ಸರ್ಕಾರಿ	-10.775
▁कं	-10.775
▁is▁now	-10.7752
▁ಪ್ರಾಣ	-10.7752
▁suffer	-10.7753
eer	-10.7755
▁very▁important	-10.7755
▁the▁local	-10.7755
▁कर▁दिया▁गया	-10.7755
▁कितने	-10.7756
qui	-10.7762
▁quickly	-10.7763
▁Diwali	-10.7764
▁offers	-10.7764
▁Nehru	-10.7764
▁ತೂಕ	-10.7764
▁जुलाई	-10.7764
▁Most▁of▁the	-10.7767
chi	-10.7767
▁carried▁out	-10.7768
▁fuel	-10.7768
hood	-10.7769
▁rather▁than	-10.777
▁प्रभावी	-10.7772
▁ಅನು	-10.7774
▁orders	-10.7774
▁१९७	-10.7775
▁मात्रा	-10.7777
▁पाया	-10.7777
▁millions	-10.7777
▁batting	-10.778
▁तरह▁के	-10.7781
▁ಒಪ್ಪಂದ	-10.7782
▁ಭೂಮಿ	-10.7784
▁बनने	-10.7785
▁whereas	-10.7788
▁begins	-10.7789
▁ಇದ	-10.7791
▁lake	-10.7794
AT	-10.7794
ಲಿರುವ	-10.7794
▁ಮೂರನೇ	-10.7796
ed▁him	-10.7796
▁map	-10.7799
▁मुकदमे	-10.78
abad	-10.7802
og	-10.7803
▁happening	-10.7805
त्मक	-10.7807
pi	-10.7807
▁ಭದ್ರತೆ	-10.7807
▁but▁he	-10.7807
▁weather	-10.7808
ral	-10.7809
▁काल▁में	-10.7811
▁hero	-10.7815
▁visited	-10.7815
▁के▁इस	-10.7815
▁ಸಮಾನ	-10.7819
ोप	-10.7819
▁wealth	-10.782
चा	-10.7821
▁insect	-10.7822
▁immediate	-10.7824
▁became▁the	-10.7825
▁भीतर	-10.7827
▁But▁this	-10.7828
▁is▁not▁a	-10.7828
▁सूरदास	-10.7829
▁फौज	-10.7829
▁communal	-10.783
▁व्यय	-10.783
▁अनुपात	-10.7831
):	-10.7831
▁और▁अब	-10.7831
▁मिलते▁हैं	-10.7834
▁ವಿಭಿನ್ನ	-10.7837
▁Nav	-10.7839
▁ಅವರೊಂದಿಗೆ	-10.784
▁fat	-10.784
है	-10.7841
▁go▁to	-10.7842
ಿರುತ್ತದೆ	-10.7844
ಪರ್	-10.7844
▁a▁huge	-10.7845
▁टूट	-10.7846
▁longer	-10.7846
▁नौकरी	-10.7848
▁ko	-10.7848
lin	-10.785
▁ಪ್ರವಾಸ	-10.7851
▁नियुक्त	-10.7852
वत	-10.7853
ದೇಶ	-10.7854
▁की▁दृष्टि	-10.7855
▁जला	-10.7856
▁है▁जिसमें	-10.7856
▁biggest	-10.7856
van	-10.7858
ಯರ್	-10.7864
▁ಸಹಾಯ▁ಮಾಡ	-10.7865
▁66	-10.7866
▁functions	-10.7867
▁on▁it	-10.7868
गल	-10.7872
▁ಏರ್	-10.7872
▁cars	-10.7873
थल	-10.7876
▁he▁added	-10.7879
ph	-10.7881
▁स्वर्ग	-10.7881
▁कक्ष	-10.7886
▁cross	-10.7887
▁प्रतिनिधि	-10.7888
ುತ್ತಿರಲಿಲ್ಲ	-10.7889
▁Kan	-10.7889
▁प्रदूषक	-10.7889
▁belief	-10.7892
▁his▁father	-10.7894
▁ago	-10.7894
▁सितंबर	-10.7894
▁Meanwhile	-10.7894
▁धीरे▁धीरे	-10.7894
▁hurt	-10.7895
▁तीसरा	-10.7895
▁entrance	-10.7895
▁ಸೊ	-10.7895
▁1921	-10.7895
▁assistance	-10.7896
▁followers	-10.7896
▁estimated	-10.7897
▁संग्रहालय	-10.7899
▁संतान	-10.7899
ಮನ	-10.7901
▁सदा	-10.7902
ff	-10.7905
▁ಮಹತ್ವ	-10.7907
▁concept	-10.7909
ಭಾವ	-10.7909
▁कि▁इस	-10.7914
▁Chand	-10.7914
▁राशि	-10.7922
▁ಮೂಲದ	-10.7922
▁अभाव	-10.7923
▁ಸೃಷ್ಟಿಸ	-10.7926
तो	-10.7927
ेशन	-10.7927
▁mobile▁phone	-10.7928
▁older	-10.7931
ao	-10.7934
कऋ	-10.7935
▁hundred	-10.7935
▁buy	-10.7936
ven	-10.7939
ಕ್ಕೂ▁ಹೆಚ್ಚು	-10.794
▁ಪು	-10.7941
66	-10.7943
io	-10.7943
26	-10.7944
▁लो	-10.7944
ुआ	-10.7945
▁associated▁with	-10.7946
▁सीता	-10.7946
▁to▁create	-10.7951
▁प्राप्त▁करने	-10.7954
▁प्रजा	-10.796
▁ಧಾರ್ಮಿಕ	-10.7961
▁कॉलेज	-10.7961
▁for▁her	-10.7961
▁1945	-10.7962
▁भले▁ही	-10.7963
▁The▁movie	-10.7964
▁of▁the▁film	-10.7964
▁तकनीकी	-10.7964
▁ಬೆಂಕಿ	-10.7964
ಘ	-10.7965
▁Kha	-10.7965
▁li	-10.7967
▁interested▁in	-10.7968
▁भौतिक	-10.797
ूंकि	-10.797
े▁की	-10.797
▁जोर	-10.7971
ed▁on	-10.7971
▁हो▁रहा▁है	-10.7972
▁series▁of	-10.7973
कम	-10.7973
▁due	-10.7976
▁१९८	-10.7977
▁की▁भूमिका	-10.7977
ವಾಗಲಿದೆ	-10.7977
▁Bal	-10.7978
▁ಮಧ್ಯೆ	-10.7979
uch	-10.798
▁emotional	-10.7983
▁जरूर	-10.7987
▁ಚರ್ಚಿಸ	-10.7991
▁अंत▁में	-10.7992
▁जब▁हम	-10.7992
▁लगता▁है▁कि	-10.7995
▁at▁the▁end	-10.7996
iz	-10.7996
ರಾಜ್	-10.7997
ries	-10.7999
▁dispute	-10.8002
hra	-10.8004
े▁के	-10.8008
▁in▁the▁film	-10.8008
▁मधुमेह	-10.801
▁ನೀಡಿದೆ	-10.8014
ವನ್ನ	-10.8014
▁जब▁मैं	-10.8014
▁ಭಾಗವಹಿಸಿದ್ದರು	-10.8015
▁बौद्ध	-10.8016
▁ಆದರೆ▁ಇದು	-10.8018
▁ಅನ್ನ	-10.8018
fe	-10.8021
सो	-10.8023
▁ಕೊರತೆ	-10.8023
▁option	-10.8023
▁ಆಸ್ಪತ್ರೆಗೆ	-10.8024
न्ट	-10.8025
▁drink	-10.8027
ing▁them	-10.8027
▁जिंदगी	-10.8027
▁ಅಂತಾರಾಷ್ಟ್ರೀಯ	-10.8027
▁happiness	-10.8028
▁हाल▁ही▁में	-10.8028
▁लघु	-10.8028
▁सीधा	-10.8028
▁injuries	-10.8028
▁ಸೇರಿಸ	-10.8029
▁chosen	-10.8029
▁strike	-10.803
▁Fa	-10.8031
▁का▁जन्म	-10.8031
▁CBI	-10.8035
▁ख़	-10.8035
▁ರಷ್ಟು	-10.8039
▁ಸಾಮರ್ಥ್ಯ	-10.8039
▁to▁us	-10.804
▁छूट	-10.8042
▁ಮೋ	-10.8042
▁के▁लोग	-10.8042
▁ಚಮಚ	-10.8042
▁ತಯಾರಿಸ	-10.8044
▁बनाना	-10.8047
bal	-10.8047
जल	-10.8048
ಮೋ	-10.8049
▁mountains	-10.8049
▁शिल्प	-10.8051
▁should▁have	-10.8052
▁ಮಗನ	-10.8053
ment▁of	-10.8055
▁कहना	-10.8056
▁translation	-10.8056
▁मल	-10.8061
▁ಸೇನಾ	-10.8061
▁चा	-10.8063
▁किया▁कि	-10.8063
▁लोगों▁से	-10.8065
▁government▁has	-10.8066
क्	-10.8066
ea	-10.8069
ಪಡ	-10.8069
▁chair	-10.807
ುವುದೇ	-10.8072
▁to▁learn	-10.8072
▁games	-10.8073
े▁को	-10.8077
ता▁है▁और	-10.808
▁बनाई	-10.808
▁And▁then	-10.808
▁In▁India	-10.8081
▁बढ़त	-10.8081
▁ಸಿಕ್ಕ	-10.8083
▁instrument	-10.8084
▁लेना	-10.8084
hal	-10.8086
▁ಜನಪ್ರಿಯ	-10.8088
nu	-10.809
गढ़	-10.8092
ವ್ಯ	-10.8093
▁दाँत	-10.8094
▁जोखिम	-10.8094
▁controversy	-10.8094
▁आंतरिक	-10.8094
▁ಉಪಾಧ್ಯಕ್ಷ	-10.8094
▁के▁खिलफ	-10.8094
▁ಮತದಾನ	-10.8095
▁1948	-10.8095
▁product	-10.8096
ों▁या	-10.8096
▁ವಿವಾಹ	-10.8097
▁tests	-10.8098
▁respectively	-10.8099
▁ಅಷ್ಟ	-10.81
▁गहरी	-10.8102
▁ನದಿ	-10.8103
▁would▁not	-10.8105
▁प्रकार▁से	-10.8106
▁gone	-10.811
▁ಹತ್ತಿರ	-10.811
ough	-10.811
ed▁in▁the	-10.8111
▁are▁in	-10.8114
▁pitch	-10.8114
▁ಹೆಚ್ಚಾಗಿ	-10.8114
ಕೊಡ	-10.8115
▁Dev	-10.8115
ज़ा	-10.8117
▁से▁कम	-10.8118
ping	-10.8119
▁370	-10.812
tory	-10.812
▁if▁he	-10.812
ों▁की▁संख़्या	-10.812
adi	-10.8121
▁केवल▁एक	-10.8121
▁बताया	-10.8122
▁—	-10.8122
▁ruled	-10.8123
▁ಕ್ಷಣ	-10.8123
lay	-10.8125
▁seeing	-10.8125
▁जरूरत	-10.8125
▁होने▁के	-10.8125
के▁पास	-10.8126
▁else	-10.8127
▁39	-10.8129
▁CA	-10.813
ೃ	-10.813
▁बीज	-10.8131
▁:▁“	-10.8134
▁proved	-10.8134
▁राज्य▁सभा	-10.8134
▁wise	-10.8137
▁on▁its	-10.8138
▁द्वितीय	-10.8139
▁ग्रामीण	-10.814
▁the▁Parliament	-10.8142
▁स्थिर	-10.8142
ओं▁पर	-10.8143
▁जीवन▁के	-10.8143
▁बातों	-10.8145
ील	-10.8149
▁देकर	-10.8149
▁annual	-10.815
▁ಇರಬೇಕು	-10.815
▁stress	-10.8151
▁फा	-10.8151
▁मोह	-10.8151
▁may▁not	-10.8153
ಯವರ	-10.8155
ುವುದು▁ಹೇಗೆ	-10.8156
▁plea	-10.8158
▁extent	-10.8159
▁ಚಟುವಟಿಕೆ	-10.8159
rai	-10.816
▁ಇತರೆ	-10.816
▁इलाहाबाद	-10.8162
▁stuff	-10.8162
▁1971	-10.8162
▁वैध	-10.8163
▁chairman	-10.8163
▁spoken	-10.8164
▁proceedings	-10.8164
▁ಈ▁ಘಟನೆ	-10.8164
▁ಎಂದಿಗೂ	-10.8164
▁com	-10.8166
▁योगदान	-10.8167
▁रहस्य	-10.8168
SE	-10.8169
▁ಬಿಟ್ಟು	-10.817
▁विद्युत	-10.8171
ER	-10.8171
val	-10.8172
▁10,000	-10.8174
ಗ್ಗ	-10.8175
▁ಅಂತರ	-10.8175
▁Part	-10.8176
कालीन	-10.8176
ವೇನು	-10.8179
▁figure	-10.8179
▁in▁the▁past	-10.818
▁Persian	-10.8181
ाम	-10.8182
▁arch	-10.8186
▁चोट	-10.8187
▁Sp	-10.8189
ಪಾಲ	-10.8189
प्प	-10.819
▁ಕ್ಷೇತ್ರಗಳಲ್ಲಿ	-10.8191
भी	-10.8192
ार्थ	-10.8192
या▁गया	-10.8193
वेद	-10.8195
▁कौ	-10.8195
▁raise	-10.8197
के▁लिए	-10.8198
▁ಸ್ಕ	-10.8199
ification	-10.8201
▁fund	-10.8203
▁रा	-10.8205
▁Jaya	-10.8206
▁ಕಲ	-10.8206
▁childhood	-10.8207
▁कर▁रहे▁थे	-10.8208
▁ಪಡೆದುಕೊಂಡ	-10.821
ो▁को	-10.821
लर	-10.821
dhi	-10.8212
▁ತೋರ	-10.8214
ಹಾಕ	-10.8215
“	-10.8216
सल्ल	-10.8216
ौर	-10.8218
▁Are	-10.8218
▁की▁तरफ	-10.8219
▁ಮಟ್ಟ	-10.8221
▁ವೈದ್ಯರು	-10.8222
s▁son	-10.8224
ಹು	-10.8225
▁उत्कृष्ट	-10.823
▁Haryana	-10.823
▁drama	-10.8231
▁1973	-10.8231
▁of▁us	-10.8231
▁कीजिए	-10.8232
▁claims	-10.8232
▁असाधारण	-10.8232
▁secure	-10.8234
13	-10.8234
▁distributed	-10.8235
▁आतंकवादी	-10.8237
min	-10.8242
▁sha	-10.8243
▁The▁other	-10.8243
▁आप▁के	-10.8243
▁जिनकी	-10.8243
wi	-10.8244
▁properly	-10.8245
▁gain	-10.8246
ು▁ತಿಳಿಸಿದ್ದಾರೆ	-10.8249
▁उनके▁पास	-10.8249
▁bowler	-10.8249
▁वक्त	-10.8251
▁launch	-10.8253
▁लेता▁है	-10.8255
ied	-10.8257
ುತ್ತಿದ್ದೇನೆ	-10.8257
▁in▁every	-10.8257
▁touch	-10.8261
▁to▁its	-10.8266
▁acting	-10.8269
क़्क	-10.827
▁ಚಾಲಕ	-10.8278
▁full▁of	-10.8284
▁personality	-10.829
don	-10.8293
tain	-10.8296
▁पर▁निर्भर	-10.8297
▁revenue	-10.8298
▁प्रदर्शित	-10.8299
▁ಬಿದ್ದ	-10.83
याँ	-10.83
▁ಸಾರ	-10.8301
▁ಪ್ರವೇಶಿಸ	-10.8303
▁कर▁सके	-10.8305
▁पहन	-10.8306
ನಿಯ	-10.8308
ष्ट	-10.8311
▁ಘಟಕ	-10.8311
▁ಕುಟುಂಬದ	-10.8312
▁supported	-10.8314
▁asking	-10.8314
▁प्रेरित	-10.8316
▁में▁कुछ	-10.8317
▁कई▁बार	-10.8318
ಿಟ್ಟ	-10.832
▁पता▁लगा	-10.8321
▁organisations	-10.8323
▁ಉದಾಹರಣೆಗೆ	-10.8323
▁ब्रिटिश▁सरकार	-10.8323
▁ಅಡಿ	-10.8323
▁ಎಡ	-10.8323
▁माँ	-10.8326
▁hundreds	-10.8334
sur	-10.8335
▁किस▁प्रकार	-10.8336
ೇಷನ್	-10.8337
▁धु	-10.8342
▁ram	-10.8343
▁ಸದಸ್ಯರ	-10.8343
ुर	-10.8347
▁Do▁you	-10.8348
▁and▁said	-10.8348
▁bomb	-10.8351
टो	-10.8355
▁is▁available	-10.8357
▁That▁was	-10.8363
▁ಸಹಾಯಮಾಡ	-10.8367
▁Indias	-10.8367
▁negative	-10.8367
▁सर्वश्रेष्ठ	-10.8367
▁अध्याय	-10.8367
▁दिसंबर	-10.8367
▁truly	-10.8368
▁ದುಃಖ	-10.8368
▁So▁we	-10.8368
▁Salman▁Khan	-10.8368
▁बिलकुल	-10.8368
▁ದಿನಾಂಕ	-10.8369
▁distribution	-10.837
▁भवन	-10.8372
▁ನಾಯಕರು	-10.8373
▁at▁that▁time	-10.8374
▁extend	-10.8376
▁2009	-10.8381
▁Sonia▁Gandhi	-10.8381
गार	-10.8382
▁टो	-10.8383
ed▁up	-10.8383
▁park	-10.8384
ವನ್ನೇ	-10.8386
द्र	-10.8386
▁remove	-10.8386
▁नस्ल	-10.8386
▁Red	-10.8386
िट	-10.8386
▁मराठी	-10.8389
▁the▁State	-10.839
▁2004	-10.8394
▁for▁him	-10.8397
▁contract	-10.84
▁कत	-10.8401
▁the▁water	-10.8403
▁ಸಾಗ	-10.8403
dom	-10.8405
▁ಏರಿಕೆ	-10.8405
▁helps	-10.8405
▁what▁they	-10.8405
ಜು	-10.8405
▁ಪ್ರಕಟಿಸ	-10.8406
पिता	-10.8407
▁ಮಾತುಕತೆ	-10.8408
bo	-10.8409
▁ಎಕ್ಸ್	-10.841
▁Bengali	-10.8412
▁faces	-10.8415
▁पथ	-10.8416
▁बुला	-10.8418
▁IN	-10.842
▁standards	-10.842
▁with▁her	-10.8421
▁ಗಡಿ	-10.8424
▁ಅಪಘಾತ	-10.8424
▁Ban	-10.8424
▁none	-10.8425
▁has▁become	-10.8426
▁doubt	-10.8426
▁पड	-10.8426
▁ಮುಂದುವರಿಸ	-10.8428
▁the▁name	-10.8428
▁नेहरू	-10.843
▁organization	-10.843
ತ್ತಿ	-10.8431
▁Theres▁no	-10.8433
▁division	-10.8433
85	-10.8435
▁ನೀಡಿ	-10.8436
▁कोलकाता	-10.8436
▁ಭರ್ಜರಿ	-10.8437
▁Information	-10.8437
▁श्रीकृष्ण	-10.8437
▁loan	-10.8437
▁million▁tonnes	-10.8438
ीकृत	-10.8438
▁Keep	-10.8438
▁1977	-10.8438
▁मादा	-10.8438
ित▁हो	-10.8439
▁देशों	-10.844
▁2016	-10.844
▁Are▁you	-10.8442
▁ಥ	-10.8442
कल्प	-10.8442
▁ವಿವರಿಸ	-10.8442
▁ಹೇಳಿದೆ	-10.8443
▁representatives	-10.8443
nic	-10.8444
▁थोड़ी	-10.8449
▁खून	-10.8449
▁bigger	-10.845
▁स्मृति	-10.845
▁lakhs	-10.845
ier	-10.8451
▁drop	-10.8451
▁branches	-10.8452
▁अकेले	-10.8452
▁साइ	-10.8453
▁sweet	-10.8457
▁certainly	-10.846
IT	-10.8463
▁ಸ್ಪ	-10.8463
has	-10.8464
▁horse	-10.8466
▁Vedas	-10.8469
▁provid	-10.8469
▁कंपनियों	-10.847
▁ನೇರ	-10.8472
▁शामिल▁है	-10.8477
▁gods	-10.8478
▁consideration	-10.848
▁democratic	-10.8482
▁बेह	-10.8483
▁दर्ज	-10.8484
▁ಮಾಧ್ಯಮ	-10.8484
ಾಗಿತ್ತು	-10.849
स्थल	-10.8491
▁जाते	-10.8492
▁1984	-10.8493
ong	-10.8497
▁all▁over	-10.8501
▁German	-10.8502
ound	-10.8502
▁heaven	-10.8503
▁holding	-10.8504
▁अस्पताल	-10.8506
▁नुकसान	-10.8506
▁royal	-10.8507
▁Technology	-10.8507
▁a▁child	-10.8507
▁पर्यटन	-10.8507
▁The▁Indian	-10.8507
▁abroad	-10.8507
▁मिट्टी	-10.8507
▁ಸ್ಮಾರ್ಟ್▁ಫೋನ್	-10.8507
▁1996	-10.8507
▁को▁अपना	-10.8507
▁Rajput	-10.8507
▁लकड़ी	-10.8508
▁Men	-10.8508
▁पृष्ठ	-10.8508
▁Andhra▁Pradesh	-10.8508
▁श्रमिक	-10.8509
ाया	-10.851
▁ಪ್ರಯಾಣ	-10.851
▁to▁stop	-10.8513
▁यूरोपीय	-10.8515
▁Li	-10.8516
▁believed	-10.8518
▁भूल	-10.852
▁gene	-10.852
▁लक	-10.8522
▁भगत	-10.8522
ed▁from	-10.8527
▁51	-10.8527
▁missing	-10.853
▁का▁निर्माण	-10.8533
दान	-10.8534
▁बीमार	-10.8534
▁made▁by	-10.8535
▁तो▁वे	-10.8535
▁मोड़	-10.8535
▁शब्दों	-10.8536
▁ab	-10.8536
▁ವಿರೋಧಿ	-10.8537
▁43	-10.8538
▁सम्मेलन	-10.8538
▁धारा	-10.8538
ಶನ್	-10.8539
▁one▁day	-10.8539
ಕಾಲ	-10.8541
▁own	-10.8542
▁क्षेत्रीय	-10.8545
ign	-10.8546
▁ಪೇ	-10.8546
▁divided▁into	-10.8547
▁to▁speak	-10.855
▁chapter	-10.8551
▁कुछ▁ही	-10.8552
▁numer	-10.8557
▁in▁fact	-10.856
▁the▁son	-10.8564
▁he▁says	-10.8567
nce	-10.8568
▁in▁English	-10.8571
▁ಉಪಯೋಗಿಸ	-10.8572
▁करने▁और	-10.8572
न▁में	-10.8572
▁ತೀರ್ಮಾನ	-10.8573
▁forth	-10.8573
▁जानवर	-10.8576
್ತಾ	-10.8577
▁मैथुन	-10.8577
▁coalition	-10.8577
▁डाक्टर	-10.8577
▁गद्य	-10.8577
gal	-10.858
▁appearance	-10.858
▁Mah	-10.8582
ಲ್ಲಿರುವ	-10.8583
▁Great	-10.8584
▁आक्रमण	-10.8585
▁ಹೈದರಾಬಾದ್	-10.8585
▁ವರ್ಷಗಳ	-10.8587
▁Urdu	-10.8588
sar	-10.8589
▁ಭರವಸೆ	-10.8592
कर्ता	-10.8595
▁समय▁तक	-10.8595
▁you▁see	-10.8596
▁passing	-10.8597
▁सबसे▁बड़ी	-10.8598
▁the▁issue	-10.86
▁mid	-10.8601
्व	-10.8604
78	-10.8604
▁up▁the	-10.8605
▁united	-10.8607
▁will▁get	-10.8607
▁संभावना	-10.8608
▁गेंदबाज	-10.8609
▁shooting	-10.8609
▁ಆಳ	-10.861
▁तो▁मैं	-10.8612
न▁की	-10.8613
▁improved	-10.8613
▁parliamentar	-10.8614
hara	-10.8614
▁one▁of	-10.8615
▁रेल	-10.8615
▁ರೂಪಿಸ	-10.8618
▁in▁some	-10.8618
▁के▁प्रमुख	-10.8621
▁And▁they	-10.8621
)▁-	-10.8623
▁खड़े	-10.8624
▁ends	-10.8625
▁वऋ	-10.8625
▁ರಾಜ್	-10.8625
▁ಉತ್ಪಾದನೆ	-10.8626
िनी	-10.8626
▁of▁one	-10.863
▁Whats▁the	-10.8636
▁grant	-10.8636
▁विश्व▁की	-10.8637
▁ವಿಧ	-10.8637
▁electric	-10.8638
–	-10.8639
▁पढ	-10.8641
▁संकल्प	-10.8642
▁बदले	-10.8643
▁You▁have	-10.8644
ಇದು	-10.8644
▁of▁man	-10.8645
▁ಅನುಸರಿಸ	-10.8647
▁निम्नलिखित	-10.8648
▁communities	-10.8648
▁territory	-10.8648
▁यातायात	-10.8648
▁इंसान	-10.8648
▁भेड़	-10.8648
▁peak	-10.8648
▁प्रत्यक्ष	-10.8649
▁compensation	-10.8649
▁arms	-10.865
▁Veda	-10.8651
▁ಏನು▁ಮಾಡ	-10.8655
are	-10.8655
ित▁हैं	-10.8657
70	-10.8659
▁ಕಳುಹಿಸ	-10.8659
▁professional	-10.8659
▁the▁city	-10.8659
डे	-10.8661
▁में▁अपने	-10.8667
▁वाल	-10.8667
▁attended▁the	-10.8668
▁बनाये	-10.8669
▁sale	-10.8669
▁जायेगा	-10.8671
ನೊ	-10.8671
▁normally	-10.8672
▁राज्य▁के	-10.8675
ed▁a	-10.8676
mit	-10.8676
▁terrorists	-10.8676
▁Ku	-10.8676
▁गतिविधियों	-10.8677
▁मामला	-10.8678
▁यह▁सब	-10.8678
▁ಕರ್ತನು	-10.8684
▁भेद	-10.8684
bha	-10.8688
▁lose	-10.8688
▁As▁a	-10.8689
▁जब▁वे	-10.8689
▁Sc	-10.869
ಟೆ	-10.8695
▁के▁आ	-10.8696
▁पारं	-10.8697
▁ಆಸ್ಪತ್ರೆಯಲ್ಲಿ	-10.8698
▁actress	-10.8699
▁became▁a	-10.87
nal	-10.87
‍ನ	-10.8704
▁Love	-10.8704
▁हो▁गया▁था	-10.8707
▁have▁to	-10.8709
ीत	-10.8712
▁the▁result	-10.8713
▁आतंक	-10.8713
▁का▁अर्थ	-10.8713
▁होगा▁कि	-10.8715
दैव	-10.8716
▁महत्त्व	-10.8719
▁Everything	-10.872
▁Madras	-10.872
▁Nothing	-10.872
▁expenditure	-10.872
▁Bhagat▁Singh	-10.872
▁रुक	-10.8721
rt	-10.8722
▁as▁he	-10.8723
▁ಗೆಲ್ಲ	-10.8723
▁way▁to	-10.8725
▁unless	-10.8731
▁establishment	-10.8732
▁हुई▁थी	-10.8732
▁india	-10.8733
▁evening	-10.8734
▁होती▁थी	-10.8741
▁Mohan	-10.8743
▁salt	-10.8744
▁Va	-10.8745
▁दुख	-10.8746
▁suggested	-10.8746
▁स्वाभाविक	-10.8747
▁ज्ह	-10.8748
▁रियासत	-10.8748
let	-10.8749
▁की▁गई▁है	-10.8751
ಣಾ	-10.8752
▁ಇಲ್ಲಿನ	-10.8753
▁इसलिये	-10.8755
▁की▁गयी	-10.8756
ಚೆ	-10.8756
▁characters	-10.8757
▁ಕಂಪನಿ	-10.8757
▁ತೆರೆಯ	-10.8758
▁120	-10.8759
▁किसान	-10.8764
ುವುದರಿಂದ	-10.8764
▁ಕಚೇರಿ	-10.8765
बु	-10.8766
▁his▁life	-10.8767
▁like▁that	-10.8767
▁imagine	-10.8771
▁example▁of	-10.8773
▁nobody	-10.8773
▁ಕಲೆ	-10.8775
▁scholars	-10.8778
▁led	-10.878
▁Indian▁market	-10.8781
▁she▁was	-10.8782
mandapa	-10.8783
े▁थे	-10.8784
▁ಬರುತ್ತದೆ	-10.8784
यू	-10.8789
▁अपने▁को	-10.879
▁ग्लोबल▁वार्मिंग	-10.879
▁फैसला	-10.879
▁in▁the▁first	-10.8791
▁ಶುಲ್ಕ	-10.8791
▁ಗೊಂದಲ	-10.8792
▁हासिल▁कर	-10.8792
▁counsel	-10.8792
▁ಆಚರಿಸ	-10.8792
▁criticism	-10.8792
▁background	-10.8792
▁audience	-10.8792
ek	-10.8793
▁ब्रिटेन	-10.8794
▁a▁woman	-10.8796
ಲಿಕ್ಕಾಗಿ	-10.8796
▁suddenly	-10.8798
गामी	-10.8799
tin	-10.8799
▁ನಡೆಯಲಿದೆ	-10.8799
charge	-10.88
▁ಪ್ರಾರ್ಥನೆ	-10.88
छा	-10.88
▁ಬು	-10.8804
▁Gu	-10.8805
▁Five	-10.8805
.▁”▁—	-10.8807
▁ಹೇಳಿದ	-10.8807
▁इलाज	-10.8809
ಂಡಿ	-10.8809
▁unknown	-10.881
▁ಬಳಸಿ	-10.8811
वाल	-10.8813
ಥಾ	-10.8818
▁ನಿರ್ಧರಿಸ	-10.8819
▁of▁S	-10.8822
▁brings	-10.8823
▁flood	-10.8823
fa	-10.8824
▁कर्मचारी	-10.8824
▁इस▁बात▁का	-10.8824
▁औरत	-10.8825
▁determined	-10.8827
क्र	-10.8828
▁औ	-10.8828
▁गण	-10.8828
मेल	-10.8829
▁ಸಾಂಸ್ಕೃತಿಕ	-10.883
▁ಪಡೆದುಕೊಳ್ಳ	-10.883
▁मतभेद	-10.8832
▁agricultural	-10.8835
▁पुर	-10.8838
▁ರೈ	-10.8838
▁the▁company	-10.884
0,000	-10.884
▁46	-10.8844
▁and▁B	-10.8845
br	-10.8846
▁तुलना	-10.8847
▁लिखी	-10.8847
▁ಟ್ವೀಟ್▁ಮಾಡ	-10.8848
▁that▁this	-10.8849
▁ನಿಜಕ್ಕೂ	-10.885
▁भूख	-10.8851
▁platform	-10.8852
▁of▁America	-10.8852
स्प	-10.8853
▁ಬಯಸ	-10.8855
▁uses	-10.8855
▁ಪರಿಗಣಿಸ	-10.8857
ंप	-10.8858
ok	-10.8859
▁गीता	-10.886
▁Further	-10.8864
▁legislative	-10.8864
▁ಜೀವನದಲ್ಲಿ	-10.8864
▁Of▁course	-10.8864
▁sacred	-10.8865
▁सच्चाई	-10.8865
▁the▁land	-10.8866
▁can▁we	-10.8867
▁बयान	-10.8868
▁ಹೈಕೋರ್ಟ್	-10.8868
ೂರ	-10.887
▁सिविल	-10.887
▁decade	-10.887
▁पड़ा	-10.8871
▁शीघ्र	-10.8871
▁is▁made	-10.8872
▁The▁court	-10.8872
▁street	-10.8874
▁दरबार	-10.8875
▁आहार	-10.8876
▁ಉಳಿಯ	-10.8876
▁ಹರಿ	-10.8876
▁system▁of	-10.8877
▁ಪೋಷಕರು	-10.8878
▁मनो	-10.8878
▁ಹಾಡು	-10.888
್ರಾ	-10.888
▁उभर	-10.8881
▁ಅದರಿಂದ	-10.8881
▁regularly	-10.8882
ft	-10.8885
ೇಶ್ವರ	-10.8885
ಸರ್	-10.8886
अर	-10.8888
▁the▁future	-10.8888
ed▁into	-10.8889
▁ಈ▁ಬಾರಿ	-10.8889
▁रक्षा	-10.8889
▁has▁given	-10.8892
▁ಮಾಡುವುದು	-10.8894
यानी	-10.8894
▁dress	-10.8895
स्तर	-10.8897
▁element	-10.8897
▁रच	-10.8897
धा	-10.89
ಯಾಗಿತ್ತು	-10.89
▁वाहन	-10.8901
▁सहारा	-10.8902
▁ತೆಗೆದುಕೊಂಡ	-10.8905
▁hu	-10.8908
95	-10.8909
▁ನಿಯಂತ್ರಿಸ	-10.8909
ing▁up	-10.891
▁affairs	-10.8912
act	-10.8913
▁ಪರವಾಗಿ	-10.8914
▁From▁the	-10.8914
▁अमर	-10.8915
जर	-10.8915
या▁जा▁सकता▁है	-10.8917
ity▁of	-10.892
▁wear	-10.8922
ಯಿಲ್ಲ	-10.8922
▁का▁विकास	-10.8924
▁पत्नी	-10.8924
▁ಕಂಪನಿಯು	-10.8926
ಟನ್	-10.8926
▁exchange	-10.8927
▁customers	-10.8928
▁ಎಂದು▁ಪೊಲೀಸರ	-10.8929
▁and▁social	-10.8929
▁sales	-10.8929
▁she▁said	-10.893
▁ಪೋ	-10.893
▁इंग्लैंड	-10.8931
▁quick	-10.8934
▁ವರೆಗೆ	-10.8935
▁सामूहिक	-10.8937
▁शिष्य	-10.8937
▁Earlier	-10.8937
▁infrastructure	-10.8937
▁ಉಪ್ಪು	-10.8937
▁लंदन	-10.8937
▁Allahabad	-10.8937
▁come▁from	-10.8938
▁Sw	-10.8939
▁obtained	-10.8939
ತರ	-10.894
▁गुप्त	-10.8941
▁वजन	-10.8944
ष्	-10.8944
▁के▁तौर▁पर	-10.8945
ಗಳಾಗಿವೆ	-10.8945
रु	-10.8945
▁सकता	-10.8946
▁Tr	-10.8948
ving	-10.8948
ಂಚ	-10.8948
e▁and	-10.8949
▁के▁चार	-10.895
▁ದೇಹ	-10.8951
cus	-10.8952
▁टै	-10.8954
▁island	-10.8954
▁him▁to	-10.8955
▁proud	-10.8956
▁मुक्त	-10.8959
▁भि	-10.8959
▁लिखे	-10.896
▁urban	-10.8962
▁जाना▁जाता▁है	-10.8963
▁समाधान	-10.8963
▁सैनिक	-10.8964
▁ತಿ	-10.8964
▁विविधता	-10.8967
▁exactly	-10.8967
▁समाज▁में	-10.8967
ುಗಳು	-10.8969
▁meetings	-10.8971
▁ಗಳಿಗೆ	-10.8972
▁twice	-10.8976
qu	-10.8978
▁पाठक	-10.8979
▁revolutionary	-10.898
▁4:	-10.8981
▁ಹೂ	-10.8982
▁the▁top	-10.8982
ನರ್	-10.8982
▁serve	-10.8983
48	-10.8983
▁Rai	-10.8986
▁ಆತನನ್ನು	-10.8988
ते▁रहे	-10.8991
▁You▁will	-10.8994
aw	-10.8996
▁ತಿನ್ನ	-10.8997
ंगे	-10.8999
▁में▁स्थित	-10.9002
▁सतह	-10.9002
▁सकते▁थे	-10.9003
▁अधिकरण	-10.9004
▁Speaker	-10.9005
▁Section	-10.9005
▁pleasure	-10.901
▁requires	-10.901
▁mosque	-10.9011
▁wisdom	-10.9011
▁Sometimes	-10.9011
▁intelligence	-10.9011
▁1970	-10.9011
▁यथा	-10.9011
97	-10.9011
▁ಯೇಸುವಿನ	-10.9011
▁ಹಳೆಯ	-10.9012
▁ಈ▁ಚಿತ್ರ	-10.9012
▁punishment	-10.9012
▁suitable	-10.9013
▁operations	-10.9018
▁प्रसार	-10.9018
▁ಬಹಳಷ್ಟು	-10.902
▁गरीबी	-10.902
▁winning	-10.9021
▁किया▁जाए	-10.9021
▁approval	-10.9024
▁whe	-10.9027
▁choose	-10.9027
▁जहां▁तक	-10.9028
64	-10.9028
ों▁का▁एक	-10.903
▁kinds	-10.9037
▁ಪ್ರಗತಿ	-10.9038
▁रही▁हैं	-10.9038
▁watching	-10.904
▁ಆಗಿಲ್ಲ	-10.904
ंघ	-10.9041
▁rose	-10.9042
▁Allah	-10.9042
71	-10.9043
▁auto	-10.9044
s▁also	-10.9044
▁going▁on	-10.9045
ಾಯ್	-10.9046
हत	-10.9046
▁में▁शामिल	-10.9047
▁जीवित	-10.9047
ಿಸಿದೆ	-10.9048
▁छवि	-10.9048
▁ಪಾಲ್ಗೊಂಡಿದ್ದರು	-10.905
▁indian	-10.9051
▁दिए▁गए	-10.9051
▁ಬೇಕಾದ	-10.9051
▁ಕಲಿಯ	-10.9051
▁is▁on	-10.9054
ेंस	-10.9055
▁2,	-10.9055
cc	-10.9056
ley	-10.9056
▁parent	-10.9057
▁पै	-10.9058
▁पति	-10.9059
▁tools	-10.9059
This	-10.906
▁दक्षिण▁में	-10.906
▁Under	-10.9061
ूं	-10.9062
▁occasion	-10.9062
ों▁में▁भी	-10.9063
▁वीर	-10.9067
▁जब▁तक▁कि	-10.9068
▁ताल	-10.9068
▁the▁name▁of	-10.9072
▁पिछल	-10.9074
ओं▁ने	-10.9074
▁व्यक्तिय	-10.9076
▁नहीं▁होगा	-10.908
हि	-10.9081
▁pace	-10.9081
▁ಸಮುದಾಯ	-10.9082
▁lots	-10.9082
.3	-10.9084
some	-10.9084
▁अखबार	-10.9084
▁qualities	-10.9085
▁आमदनी	-10.9085
▁angry	-10.9085
▁denied	-10.9085
▁1993	-10.9085
▁Patel	-10.9086
▁awareness	-10.9086
▁74	-10.9087
▁the▁story	-10.9087
▁not▁a	-10.9087
▁The▁accused	-10.9088
▁कांग्रेस▁के	-10.9088
▁divided	-10.9089
▁ಇರುವುದಿಲ್ಲ	-10.909
▁ನಿರ್ಣಯ	-10.909
ed▁out	-10.909
▁देखिये	-10.9091
▁Price	-10.9093
▁संपन्न	-10.9093
ल्स	-10.9095
▁ಹೋದ	-10.9096
▁ಶರ್ಮಾ	-10.9096
▁arm	-10.9096
▁रावण	-10.9096
▁selection	-10.9096
▁couple	-10.9096
▁आवाज	-10.9097
▁brand	-10.9097
▁ಪತಿ	-10.9098
▁खुद▁को	-10.9099
▁ordered	-10.9101
d▁by	-10.9102
▁equally	-10.9102
ization	-10.9102
▁कट	-10.9106
▁ನಿಷೇಧ	-10.9107
ಾತ್ಮಕ	-10.9107
क्रम	-10.9109
▁is▁more	-10.9111
s▁to▁the	-10.9113
▁ಕೆಳಗೆ	-10.9113
▁items	-10.9114
पल	-10.9117
▁upper	-10.9117
▁फैसल	-10.9119
▁रहा▁हो	-10.9119
▁instruments	-10.912
▁के▁दिन	-10.9121
▁ರಾಜೀನಾಮೆ	-10.9122
▁कोर्ट	-10.9122
put	-10.9125
▁हो▁गया▁है	-10.9128
▁ಎನ್ನುವುದು	-10.9128
▁ಹಾನಿ	-10.9129
▁bow	-10.9129
फ्	-10.913
▁ಆರು	-10.9131
▁+	-10.9131
▁ಫ್ಲ	-10.9133
▁संस्थाओं	-10.9136
▁ग्राम	-10.9137
▁ಖುಷಿ	-10.9138
▁liter	-10.9143
▁ಗ್ರಾಮ	-10.9143
▁stock	-10.9143
jo	-10.9143
▁will▁come	-10.9143
▁प्रण	-10.9143
▁of▁Israel	-10.9143
▁उन्होंने▁कहा	-10.9146
’’	-10.9147
ते▁समय	-10.9147
▁am	-10.9149
.2	-10.915
▁ರಚನೆ	-10.915
ीस	-10.9151
▁ಬಂದಿಲ್ಲ	-10.9153
▁अहम	-10.9154
dhar	-10.9154
▁flowers	-10.9155
▁धारणा	-10.9155
74	-10.9157
▁अयोध्या	-10.9159
▁studied	-10.9159
▁motorcycle	-10.9159
▁ಕೆಲವೊಮ್ಮೆ	-10.9159
▁ರಾಷ್ಟ್ರಪತಿ	-10.916
▁ಇದಲ್ಲದೆ	-10.916
▁चेतना	-10.916
▁bridge	-10.916
▁divine	-10.916
▁1857	-10.916
55	-10.9163
▁नंबर	-10.9163
▁to▁avoid	-10.9164
▁facts	-10.9164
▁falls	-10.9165
ಿದ್ದರೂ	-10.9165
▁flag	-10.9168
▁beat	-10.917
No	-10.917
▁कागज	-10.9171
▁identified	-10.9171
hari	-10.9174
ES	-10.9174
▁ಸದಾ	-10.9175
▁ಅರ್ಜಿ▁ಸಲ್ಲಿಸ	-10.9178
▁of▁power	-10.918
▁करने▁से	-10.918
▁draw	-10.918
▁device	-10.9181
▁bright	-10.9181
▁Sita	-10.9183
▁the▁House	-10.9183
▁Hu	-10.9184
▁regarding	-10.9185
▁ability	-10.9186
ಿಗಳು	-10.9187
ying	-10.9188
IS	-10.9191
▁बिता	-10.9193
▁3:	-10.9197
▁ರು	-10.9197
ami	-10.9198
▁ಜಾತಿ	-10.9199
▁की▁आयु	-10.92
ಬಲ	-10.92
▁झ	-10.9201
▁विधान	-10.9202
▁ಸಂಸ್ಕೃತಿ	-10.9203
uda	-10.9203
▁ಪ್ರತಿಯೊಬ್ಬರ	-10.9204
सम	-10.9206
▁differ	-10.9209
▁payment	-10.9211
▁require	-10.9213
▁ನನಗ	-10.9214
ವೊ	-10.9215
▁shortage	-10.9217
▁educational	-10.9218
▁sand	-10.9218
ಧ್ಯ	-10.922
▁करने▁के▁लिये	-10.922
▁जिसमे	-10.9221
▁experiment	-10.9221
▁ರಕ್ಷಣಾ	-10.9222
▁have▁no	-10.9223
▁know▁that	-10.9225
▁बोस	-10.9227
▁Arjun	-10.9227
▁actual	-10.9228
▁बचाव	-10.9228
▁ಅಪ್	-10.9229
ing▁it	-10.9229
शऋ	-10.9232
▁दिलचस्प	-10.9232
▁was▁that	-10.9233
▁ड़	-10.9233
▁television	-10.9234
▁Rahul	-10.9234
▁welfare	-10.9234
▁administrative	-10.9234
▁न्यायपालिका	-10.9234
▁ಎಣ್ಣೆ	-10.9234
▁मालूम	-10.9235
▁ಎಂದರೇನು	-10.9235
▁Father	-10.9235
ायिक	-10.9235
▁सूअर	-10.9235
▁खतरे	-10.9235
▁वर्गाकार	-10.9236
round	-10.9238
▁ಅವಧಿಯಲ್ಲಿ	-10.9239
s▁from▁the	-10.9239
▁जूट	-10.924
▁ಸುಪ್ರೀಂಕೋರ್ಟ್	-10.924
▁apart	-10.924
▁ಪಂಜಾಬ್	-10.9244
▁चेहरे	-10.9245
▁ಹಣಕಾಸು	-10.9246
▁का▁ही	-10.9246
▁led▁to	-10.9248
ST	-10.9249
▁Peter	-10.925
▁ತಲಾ	-10.925
▁कप	-10.9252
lan	-10.9252
ಗೊಂಡಿದೆ	-10.9256
▁इन्	-10.9257
दे	-10.9259
▁on▁your	-10.9264
▁ಪ್ರಭಾವ	-10.9265
▁aspects	-10.9265
▁लड़ाई	-10.9266
▁sport	-10.9268
▁Was	-10.927
▁ಸಂಚಾರ	-10.9271
ming	-10.9274
▁vast	-10.9277
▁ಸ್ಥಾಪಿಸ	-10.9277
▁ಖ್ಯಾತ	-10.9279
▁Actor	-10.928
▁it▁is▁not	-10.928
▁constituted	-10.928
▁useful	-10.9281
▁pot	-10.9281
▁रहे▁है	-10.9282
▁thoughts	-10.9283
▁ಸಾಧ್ಯವಿಲ್ಲ	-10.9285
त्य	-10.9286
▁अन्त	-10.9288
▁ಮಧ್ಯ	-10.9289
▁धीरे	-10.9291
जीव	-10.9291
▁document	-10.9291
▁किरायेदार	-10.9293
ದಲ್ಲ	-10.9294
▁grew	-10.9295
▁उसके▁बाद	-10.9295
▁ವಿಶೇಷವಾಗಿ	-10.9296
aba	-10.9296
▁Taj▁Mahal	-10.9296
ible	-10.9296
▁last▁year	-10.9297
aries	-10.9297
▁कोशिश	-10.9297
▁the▁great	-10.9298
▁ಮೂಡ	-10.9305
▁had▁to	-10.9307
▁जुड़	-10.9308
▁in▁front▁of	-10.9308
पत	-10.9308
मुख	-10.9309
▁का▁वर्णन	-10.931
▁ಸಲ್ಮಾನ್▁ಖಾನ್	-10.931
▁narrow	-10.931
▁गुणसूत्र	-10.931
▁Help	-10.9311
▁क्षति	-10.9311
▁airport	-10.9312
▁2017	-10.9312
▁खबर	-10.9312
▁Executive	-10.9313
mat	-10.9314
▁worse	-10.9315
▁ವ್ಯಕ್ತಿಯ	-10.9316
▁what▁you	-10.9319
▁अभिनेता	-10.9319
ुल	-10.932
ಲ್ಸ್	-10.9321
▁वर्षीय	-10.9321
ded	-10.9322
▁Terrorism	-10.9323
▁ದೃಶ್ಯ	-10.9325
ಲ್ಪಡ	-10.9325
▁intention	-10.9326
▁servants	-10.9328
▁ಮಕ್ಕಳನ್ನು	-10.9328
▁rear	-10.9328
▁Once	-10.933
nch	-10.933
ಕರು	-10.9332
▁८	-10.9333
▁were▁killed	-10.9333
▁नहीं▁किया	-10.9333
▁ಈ▁ರೀತಿ	-10.9334
▁ಸಾಧನ	-10.9334
▁कर▁रहा▁है	-10.9335
र्ज	-10.9337
▁taste	-10.9337
▁and▁some	-10.9337
ದ್ದಾರೆ	-10.934
▁अंड	-10.934
▁की▁और	-10.9344
▁तरह▁से	-10.9347
▁upon▁the	-10.9348
पाल	-10.9356
टि	-10.9356
▁भी▁एक	-10.9356
मल	-10.9359
▁Ayodhya	-10.9359
▁Right	-10.9361
▁close▁to	-10.9362
OR	-10.9364
तृ	-10.9364
▁बड़	-10.9367
▁की▁शुरुआत	-10.937
▁wash	-10.937
▁on▁top	-10.9371
ज्ह	-10.9372
▁At▁the	-10.9372
CA	-10.9374
▁much▁more	-10.9375
ez	-10.9378
▁रुचि	-10.9382
▁contest	-10.9383
anna	-10.9384
ೇಂದ್ರ	-10.9385
नाम	-10.9385
▁camp	-10.9386
▁coronavirus	-10.9387
▁repair	-10.9387
▁tournament	-10.9387
▁programmes	-10.9387
▁responsible	-10.9387
▁cycle	-10.9387
▁identity	-10.9388
▁जिनसे	-10.9391
log	-10.9393
ುವಂತಿಲ್ಲ	-10.9395
▁It▁will	-10.9395
ತಾವು	-10.9399
▁that▁time	-10.94
▁express	-10.9401
▁शीर्ष	-10.9401
▁ಸಾಧಿಸ	-10.9402
▁नहीं▁है▁कि	-10.9404
▁maybe	-10.9405
▁बालक	-10.9407
▁represent	-10.9409
▁ಧ್ವನಿ	-10.9413
▁BS	-10.9414
▁be▁able▁to	-10.9415
▁ಬ್ಯಾಟಿಂಗ್	-10.9416
▁ಖರೀದಿ	-10.9417
▁फ्रांस	-10.9418
▁Post	-10.9418
▁Star	-10.942
्थ	-10.942
ela	-10.942
▁will▁not▁be	-10.9421
▁their▁children	-10.9423
ena	-10.9424
gan	-10.9427
ake	-10.9428
07	-10.9429
▁ಅಡಿಯಲ್ಲಿ	-10.9431
▁of▁Jehovah	-10.9431
▁शहर▁में	-10.9433
▁previous	-10.9433
▁उनके▁साथ	-10.9436
▁सबसे▁पहले	-10.9437
ಿಸಿಕೊಳ್ಳ	-10.9438
▁ಮಾಡಿಕೊಂಡ	-10.9439
ಜರ್	-10.9441
▁ನಿರ್ವಹಣೆ	-10.9441
▁Thos	-10.9443
▁दिखाई	-10.9445
▁route	-10.9446
▁do▁you	-10.9446
▁(1	-10.9446
17	-10.9448
RE	-10.945
▁West▁Bengal	-10.9451
▁पहाड़	-10.9454
▁obvious	-10.9454
▁association	-10.9456
▁is▁used	-10.9457
▁ಔಷಧ	-10.9458
▁Have	-10.9459
▁people▁were	-10.946
▁रक़्त	-10.9461
▁चन्द्र	-10.9462
▁संक्षिप्त	-10.9463
▁आकाश	-10.9463
▁congress	-10.9463
▁ಪ್ರಧಾನ▁ಮಂತ್ರಿ	-10.9464
▁अवश्य	-10.9464
▁साक्ष्य	-10.9464
▁thou	-10.9464
▁शादी	-10.9465
▁हो▁गई	-10.9466
ಢ	-10.9467
▁New▁Zealand	-10.9468
▁दिशा	-10.9468
▁७	-10.9468
▁cl	-10.947
▁the▁Lok▁Sabha	-10.947
ಗಳಲ್ಲೂ	-10.9471
▁but▁not	-10.9471
▁discipline	-10.9472
vas	-10.9474
ator	-10.9474
▁bar	-10.9475
▁घर▁में	-10.9475
at▁the▁same▁time	-10.9477
▁मिलने	-10.9477
▁करने▁पर	-10.9478
ing▁that	-10.9478
▁with▁your	-10.9478
▁हजारों	-10.9479
ಬೇಕಾಗುತ್ತದೆ	-10.948
▁दी▁गई	-10.9481
▁will▁continue	-10.9482
▁ಪ್ರಮಾಣದಲ್ಲಿ	-10.9483
▁गांधी	-10.9485
▁के▁तहत	-10.9485
▁वचन	-10.9488
ोश	-10.949
ites	-10.9491
▁While▁the	-10.9491
▁weak	-10.9493
ी▁या	-10.9493
▁Institute	-10.9494
▁helping	-10.9496
ों▁में▁से▁एक	-10.9496
ವರೆಗೂ	-10.9498
▁ಬೀಳ	-10.95
▁खत्म	-10.9501
▁sur	-10.9501
ಂಧ	-10.9501
▁including▁the	-10.9502
s▁it	-10.9504
▁मतलब	-10.9505
▁52	-10.9506
▁implemented	-10.9506
ता▁के	-10.9507
▁ನಿರಾಕರಿಸ	-10.9508
▁aspect	-10.9509
ूँ	-10.9511
▁ಜಾಗ	-10.9512
▁calling	-10.9513
▁किसी▁अन्य	-10.9514
▁file	-10.9514
▁जो▁भी	-10.9515
▁बदरूद्	-10.9515
▁एक▁अन्य	-10.9517
▁ಹೇಳುತ್ತಾರೆ	-10.9519
▁walking	-10.9519
थी	-10.952
▁बच्चा	-10.952
▁cow	-10.9523
▁ಸಹಾಯಕ	-10.9525
ीर	-10.9528
▁representative	-10.9534
aya	-10.9534
▁आवास	-10.9535
▁ಅಭ್ಯರ್ಥಿಗಳು	-10.9535
▁भविष्य▁में	-10.9535
ಕ್ರಮ	-10.9538
युक़्त	-10.9538
ನಾಥ	-10.9538
▁600	-10.9539
▁enemy	-10.9541
▁yellow	-10.9541
▁Legislative	-10.9541
▁caught	-10.9541
▁ಬೆಳೆ	-10.9541
▁imperialism	-10.9542
▁of▁being	-10.9543
▁ವೇತನ	-10.9544
▁verses	-10.9544
▁पुनः	-10.9545
भाग	-10.9546
▁putting	-10.9546
ila	-10.9546
कों	-10.9547
ಗೈ	-10.9547
▁micro	-10.9547
▁nice	-10.9547
▁sw	-10.9548
ಂಟಿ	-10.9548
▁Indra	-10.9549
ವಾಗಿರ	-10.9549
▁बेल	-10.955
▁के▁मुकाबले	-10.9554
▁ಸುಂದರ	-10.9557
ी▁पर	-10.9558
▁ಬಂತು	-10.9558
▁gift	-10.9559
vis	-10.9561
light	-10.9561
▁ಚಿತ್ರಕ್ಕೆ	-10.9563
ಿದೆ▁ಎಂದು	-10.9563
▁all▁this	-10.9563
▁succeed	-10.9566
▁जातियों	-10.9568
▁किमी	-10.9572
▁ವೇ	-10.9572
▁और▁जब	-10.9575
▁ಡೇ	-10.9582
lic	-10.9583
ಬಹುದಾದ	-10.9583
▁seized	-10.9584
▁the▁house	-10.9586
▁station	-10.9586
▁delay	-10.9587
ष्ठ	-10.9588
▁ಮುಚ್ಚ	-10.9588
▁ಉದ್ಯಮ	-10.9588
▁throughout▁the	-10.9589
▁I▁know	-10.959
▁area▁of	-10.9591
▁five▁years	-10.9594
kin	-10.9594
▁praise	-10.9596
▁ಪ್ಯಾ	-10.9596
▁सजा	-10.9597
▁ಅಪರಾಧ	-10.9598
ual	-10.9599
run	-10.96
र्जी	-10.9602
▁anger	-10.9602
▁ಮಹತ್ವದ	-10.9605
▁ಪ್ರಕರಣಗಳು	-10.9605
▁देगा	-10.9606
▁treat	-10.9607
काल▁में	-10.9608
▁ಹಣವನ್ನು	-10.9609
▁throw	-10.961
उस	-10.9611
▁Kumaraswamy	-10.9611
▁to▁that	-10.9611
▁जानते▁हैं	-10.9613
▁BC	-10.9613
टन	-10.9613
▁ಕೆಳಗಿನ	-10.9613
▁level▁of	-10.9613
▁Main	-10.9614
100	-10.9615
▁ನಂ	-10.9616
▁जाते▁है	-10.9616
लेकिन	-10.9617
▁के▁अन्य	-10.9619
▁mixture	-10.9619
▁Rohit▁Sharma	-10.9619
▁में▁भारत	-10.9619
▁ಕನಿಷ್ಠ	-10.962
▁DNA	-10.9621
▁Ke	-10.9621
▁BJP▁leaders	-10.9622
▁ग्राहक	-10.9622
▁जब▁वह	-10.9624
▁vimana	-10.9626
▁dies	-10.9626
▁परम	-10.9627
▁Pal	-10.9627
▁ಹೆಸರನ್ನು	-10.9628
▁दौड़	-10.9629
▁अल्प	-10.963
urb	-10.9631
▁मक़्ख	-10.9631
▁समाप्त▁हो	-10.9635
1)	-10.9635
▁भाषाओं	-10.9636
▁लै	-10.9636
▁वातावरण▁में	-10.9639
▁to▁our	-10.964
▁leads	-10.9641
▁उठ	-10.9641
▁इस▁दौरान	-10.9641
▁प्रकार▁का	-10.9642
▁फे	-10.9642
▁tweeted	-10.9644
▁का▁समय	-10.9644
▁करेगी	-10.9645
▁and▁Rs	-10.965
▁ಗಂಭೀರವಾಗಿ	-10.9653
▁ಪ್ರದೇಶದಲ್ಲಿ	-10.9654
▁प्रो	-10.9654
▁भक्ति	-10.9654
▁this▁was	-10.9655
▁ಕಾಯ್ದೆ	-10.9655
▁seemed	-10.9657
▁how▁much	-10.9661
▁ವಿಜಯ್	-10.9661
पान	-10.9661
ೀರ್	-10.9663
▁against▁him	-10.9663
▁एकता	-10.9663
वर्ष	-10.9664
▁was▁taken	-10.9665
▁करना▁होगा	-10.9666
▁ದಂಡ	-10.9668
वाड़	-10.9669
▁बीस	-10.9669
▁terror	-10.9672
▁ನಾಗರಿಕ	-10.9673
▁अगर▁हम	-10.9673
ा▁हुआ	-10.9673
▁Department▁of	-10.9673
▁external	-10.9675
▁ಸುಲಭವಾಗಿ	-10.9675
▁ಸುಳ್ಳು	-10.9679
▁ಸಂಗ್ರಹ	-10.9681
▁नहीं▁करते	-10.9681
ूल	-10.9682
▁inside▁the	-10.9683
स्त्र	-10.9683
▁drug	-10.9684
▁the▁central	-10.9685
टल	-10.9688
s▁as	-10.9689
▁ಎದುರಿಸ	-10.9693
▁tough	-10.9694
▁ಪಾವತಿಸ	-10.9695
▁Legislature	-10.9698
▁visible	-10.9698
▁सचमुच	-10.9698
▁Business	-10.9698
▁govt	-10.9698
▁Malayalam	-10.9698
▁digital	-10.9698
▁legislation	-10.9698
▁ನಾಟಕ	-10.9698
▁rice	-10.9699
▁1991	-10.9699
▁ಈಗಲೂ	-10.9699
▁gradually	-10.97
▁Make	-10.9701
▁Similarly	-10.9702
▁dedicated▁to	-10.9702
▁considerable	-10.9702
▁तक▁पहुंच	-10.9703
▁ಹರಡ	-10.9703
▁Mad	-10.9704
▁ಅಂಕ	-10.9704
▁planet	-10.9704
▁managed	-10.9707
▁ಬಿಡುಗಡೆಗೊಳಿಸ	-10.9707
▁islands	-10.9709
▁captured	-10.9709
▁carbon	-10.971
kumar	-10.9712
▁march	-10.9713
▁images	-10.9713
▁ಕಾಲೇಜು	-10.9714
▁क्र	-10.9715
▁2:	-10.9716
▁में▁हैं	-10.9718
▁ಸುರಕ್ಷತೆ	-10.9719
ಗಳೇ	-10.9719
▁fee	-10.9719
▁of▁human	-10.9719
ों▁की▁तरह	-10.972
▁continues	-10.9722
▁ದಿನಗಳ	-10.9723
▁With▁the	-10.9724
▁Open	-10.9724
▁appointment	-10.9725
▁चक्र	-10.9727
▁to▁show	-10.9728
▁ಸೂಚನೆ	-10.9728
▁presided	-10.9729
▁ಮಾರ್	-10.9731
▁बिना▁किसी	-10.9731
▁नहीं▁कर▁सकते	-10.9731
ಕ್ಕಿಂತ	-10.9733
▁ಗೆಲುವು	-10.9734
▁delivered	-10.9734
▁सूत्र	-10.9735
▁with▁it	-10.9736
▁made▁the	-10.9737
▁ರಾಜೀನಾಮೆ▁ನೀಡ	-10.9737
▁ವ್ಯಕ್ತಪಡಿಸಿದರು	-10.9738
ls	-10.9739
▁comment	-10.9741
▁उनऋ	-10.9742
▁one▁of▁the▁most	-10.9745
▁प्रदान	-10.9747
ಮಾಡಿ	-10.9748
▁Br	-10.9749
▁का▁कार्य	-10.9749
▁in▁mind	-10.975
US	-10.975
▁ರೈತರಿಗೆ	-10.9752
▁ಮನವಿ	-10.9755
ध्य	-10.9755
▁अपने▁साथ	-10.9756
▁संपत्ति	-10.9757
▁pray	-10.9757
▁घोषणा	-10.9758
ುವನು	-10.9758
▁ಪಟ್ಟಣ	-10.9758
ing▁on	-10.9758
वां	-10.976
ುವವರ	-10.9763
▁markets	-10.9763
▁of▁two	-10.9764
▁an▁un	-10.9764
▁ಘೋಷಿಸ	-10.9767
▁diabetes	-10.9769
▁जैसे▁ही	-10.977
▁you▁need	-10.9773
ಾಯಿತು	-10.9775
▁ಭಾಷಣ	-10.9776
▁Some▁of▁the	-10.9776
▁specially	-10.9777
▁आध्यात्मिक	-10.9777
@	-10.9777
▁silver	-10.9777
▁शत्रु	-10.9777
▁air▁pollution	-10.9778
▁miles	-10.9778
46	-10.9779
▁grass	-10.978
▁smile	-10.978
▁confirmed	-10.978
▁कि▁उन्हें	-10.978
▁Per	-10.978
▁Human	-10.978
▁ಕರ	-10.978
▁once▁again	-10.9781
▁bail	-10.9781
ದಾರ	-10.9782
स्थान	-10.9782
▁पाल	-10.9783
▁Does	-10.9783
▁largely	-10.9785
▁मामल	-10.9785
▁wishes	-10.9785
▁signed	-10.9787
▁ಅನ	-10.9787
▁कर्मचारियों	-10.9787
▁1992	-10.9788
▁रस	-10.9788
kal	-10.9789
राह	-10.9789
▁ನೀ	-10.9791
▁figures	-10.9792
EC	-10.9794
▁focus	-10.9794
▁proof	-10.9795
ಳ್ಳಿ	-10.9795
▁relative	-10.9796
▁☻☻☻☻	-10.98
ns	-10.9801
▁in▁the▁same	-10.9804
▁flat	-10.9805
▁जनरल	-10.9805
▁lo	-10.9806
▁ice	-10.9806
▁समानता	-10.9807
▁ಕಣ್ಣು	-10.9807
▁ನಿಮ್ಮನ್ನು	-10.9808
▁slowly	-10.9808
▁Pay	-10.9811
▁किस▁तरह	-10.9812
▁accompanied	-10.9814
▁members▁of	-10.9814
▁till▁the	-10.9815
▁लिया▁था	-10.9816
▁that▁it▁was	-10.9818
DA	-10.9819
▁Mahabharat	-10.9822
▁तर	-10.9823
डऋई	-10.9824
▁ध्वनि	-10.9826
▁हो▁सके	-10.9828
▁ಆದರೆ▁ಅದು	-10.9829
▁the▁temple	-10.9834
षण	-10.9835
▁ಬಡ	-10.9835
▁रखे	-10.9836
31	-10.9837
ುವುದರಲ್ಲಿ	-10.9837
नल	-10.9838
▁ಅಳ	-10.984
▁egg	-10.984
▁0	-10.9841
▁प्रशासनिक	-10.9841
▁इन▁दोनों	-10.9842
▁pan	-10.9845
▁found▁in	-10.9846
▁schemes	-10.9852
▁85	-10.9853
ಲೊ	-10.9853
▁believed▁that	-10.9854
term	-10.9855
▁घोष	-10.9855
▁प्रार्थना	-10.9857
▁museum	-10.9857
▁ಸಾಹಿತ್ಯ	-10.9857
▁ಸನ್ನಿವೇಶ	-10.9857
ell	-10.9857
▁banned	-10.9858
▁cattle	-10.9858
▁After▁that	-10.9858
▁have▁to▁be	-10.9859
▁क्रमश	-10.9861
▁ಪತ್ತೆ	-10.9863
ify	-10.9865
▁विविध	-10.9865
▁Bachchan	-10.9867
▁Has	-10.9867
▁जज	-10.9868
▁देते	-10.9868
▁won▁the	-10.9869
▁crops	-10.9869
▁format	-10.9869
ी▁जाती▁है	-10.9871
▁भाषा▁में	-10.9872
▁ಬಿಎಸ್	-10.9872
udi	-10.9872
ಟೋ	-10.9873
▁without▁any	-10.9874
▁improve	-10.9874
▁After▁this	-10.9876
▁इस▁पोजीशन▁में	-10.9876
प्रति	-10.9879
▁ಭಾರಿ	-10.9879
▁बारह	-10.9882
▁principles	-10.9883
ix	-10.9884
वीं	-10.9885
▁मौ	-10.9886
▁which▁they	-10.9886
▁ಉಚಿತ	-10.9888
च्छ	-10.9888
▁ತಂದೆಯ	-10.9889
72	-10.9891
ೀಸ್	-10.9892
▁अपने▁आप	-10.9893
a▁and	-10.9894
▁ಮಾಡಿದ್ದ	-10.9895
▁followed▁by	-10.9895
▁Che	-10.9897
▁the▁work	-10.9897
▁mi	-10.9898
ವರನ್ನು	-10.99
▁ಅನುಮತಿ	-10.9901
▁प्रतिबंध	-10.9901
▁ವಸ್ತು	-10.9902
▁ಶಾಸಕರ	-10.9902
▁गई▁है	-10.9902
▁the▁national	-10.9903
▁उपलब्ध▁है	-10.9903
▁ಖರೀದಿಸ	-10.9906
▁anybody	-10.9906
ಹಾರ	-10.991
▁अज	-10.991
▁ರೂಪ	-10.9911
▁समा	-10.9911
tan	-10.9913
▁इंडिया	-10.9913
▁ಮುಟ್ಟ	-10.9914
79	-10.9914
▁Assam	-10.9914
ust	-10.9916
▁gate	-10.9918
▁II	-10.9919
▁government▁is	-10.992
▁since▁the	-10.9921
▁Shar	-10.9921
ंध	-10.9922
▁years▁old	-10.9923
▁But▁I	-10.9923
▁Sal	-10.9925
ी▁गयी	-10.9926
े▁जाते▁हैं	-10.9927
▁कृति	-10.9928
▁ಝ	-10.9929
▁rains	-10.9929
▁Bose	-10.9933
खंड	-10.9934
▁corner	-10.9934
▁testing	-10.9935
▁the▁High▁Court	-10.9936
▁ऊंचे	-10.9938
▁yield	-10.9938
▁ಈರುಳ್ಳಿ	-10.9938
▁injury	-10.9938
▁Consider	-10.9938
▁valley	-10.9938
▁पुर्तगाल	-10.9938
▁हुई▁है	-10.9938
▁1997	-10.9938
▁We▁can	-10.9938
▁talk▁about	-10.9939
▁compared	-10.9939
▁भेंट	-10.9939
▁in▁the▁city	-10.994
▁विकस	-10.994
▁ಈ▁ನಿಟ್ಟಿನಲ್ಲಿ	-10.9941
▁emerged	-10.9943
ು▁ಮತ್ತು	-10.9944
▁Ho	-10.9944
ां▁तक▁कि	-10.9948
▁arrangement	-10.9948
IM	-10.9949
▁देखभाल	-10.995
▁ne	-10.995
lal	-10.9953
44	-10.9955
▁ಹರ	-10.9956
ने▁से▁पहले	-10.9956
▁ನಿಲ್ಲ	-10.996
ಗರ್	-10.996
▁Ministry▁of	-10.9962
▁यंत्र	-10.9964
▁और▁इसे	-10.9964
▁होने▁से	-10.9965
्क	-10.9965
ची	-10.9965
▁53	-10.9966
▁principal	-10.9968
ers▁and	-10.997
▁ವ್ಯವಸ್ಥೆಯ	-10.9971
सल	-10.9972
▁where▁he	-10.9974
▁श्रेष्ठ	-10.9975
cing	-10.9975
▁ಹೆಚ್ಚಾಗ	-10.9975
32	-10.9977
▁अंतर्	-10.9977
▁सेल	-10.9977
▁they▁can	-10.9978
▁relatives	-10.9979
▁talking▁about	-10.9979
▁but▁they	-10.9979
▁ಶಾಲಾ	-10.9982
although	-10.9984
▁आखिर	-10.9985
▁defeated	-10.9985
▁ವೇಗ	-10.9988
▁the▁reason	-10.9989
ಬಿಡ	-10.9989
▁कार्यालय	-10.9989
▁ವಾದ	-10.9989
ದರು	-10.999
▁decide	-10.9991
▁and▁an	-10.9992
▁motor	-10.9994
▁Jai	-10.9996
▁so▁many	-10.9996
ನೆಂದು	-10.9997
▁ಆಟಗಾರ	-11
नी▁चाहिए	-11
ear	-11.0004
▁do▁it	-11.0005
▁to▁prevent	-11.0006
▁ಕಾರ್ಡ್	-11.0008
▁ವಿರುದ್ಧದ	-11.0008
▁परेशानी	-11.0009
▁Additional	-11.001
▁brief	-11.001
▁illegal	-11.001
▁जेल▁में	-11.0011
▁की▁व्यवस्था	-11.0012
ura	-11.0013
▁कीटों	-11.0013
vo	-11.0015
क्षा	-11.0015
र्ष	-11.0015
चर	-11.0016
29	-11.0017
▁cotton	-11.0018
▁रोबोट	-11.0018
▁emergency	-11.0019
▁ವಾಣಿಜ್ಯ	-11.0019
▁ವಿಸ್ತರಿಸ	-11.0019
▁ಪ್ರಸಿದ್ಧ	-11.0019
▁ಹಾಗಾದರೆ	-11.0019
अभिवादन	-11.0019
ಲಿದ್ದು	-11.0019
▁occurred	-11.002
▁1946	-11.002
▁as▁per	-11.002
▁के▁कार्य	-11.0021
▁destruction	-11.0021
▁ಯಾವುದ	-11.0021
▁Himalaya	-11.0021
▁2015	-11.0023
▁अलवा	-11.0024
▁Chief▁Justice	-11.0025
▁have▁not	-11.0025
SI	-11.0025
▁agencies	-11.0025
its	-11.0025
▁ಲೈನ್	-11.0026
▁बेट	-11.0026
▁reflect	-11.0026
▁export	-11.0029
mm	-11.0029
▁ತೈಲ	-11.0029
s▁been	-11.003
▁the▁question	-11.003
▁otherwise	-11.003
▁समुद्री	-11.003
▁produces	-11.003
▁Pi	-11.003
car	-11.0033
▁ಇವರಿಗೆ	-11.0033
▁Swami	-11.0033
▁चै	-11.0034
▁that▁it▁is	-11.0034
ಗಳನ್ನ	-11.0034
▁64	-11.0034
▁If▁you▁are	-11.0036
▁personnel	-11.0036
▁एड	-11.0037
▁substantial	-11.0039
▁wave	-11.004
▁si	-11.0041
▁वजह	-11.0041
▁ಸದ್ಯಕ್ಕೆ	-11.0041
▁warning	-11.0042
▁fields	-11.0042
▁ವಿಧಾನಸಭೆ	-11.0043
▁In▁addition	-11.0044
ೋನ್	-11.0045
▁छोड़े	-11.0048
98	-11.005
▁It▁was▁a	-11.0052
▁quarter	-11.0053
▁ಮರಣ	-11.0056
ಲು▁ಪ್ರಯತ್ನಿಸ	-11.0059
▁interest▁in	-11.0059
▁location	-11.006
▁कोशिका	-11.006
▁in▁many	-11.0062
▁निर्धारित▁कर	-11.0063
▁के▁स	-11.0064
.4	-11.0064
hand	-11.0064
▁was▁in	-11.0065
▁killed▁in	-11.0068
▁नदियों	-11.0069
▁user	-11.0072
▁da	-11.0073
ಬೇ	-11.0075
▁in▁different	-11.0077
▁परिभाषा	-11.0079
▁ಬೈ	-11.0079
▁कर▁दी	-11.0082
56	-11.0083
▁and▁two	-11.0084
▁परेशान	-11.0085
▁rates	-11.0086
ದ್ರ	-11.0086
▁Wi	-11.0087
▁वस्त्र	-11.0087
▁तमा	-11.0089
▁AD	-11.0091
not	-11.0093
▁So▁what	-11.0096
▁profit	-11.0096
▁ಅವುಗಳಲ್ಲಿ	-11.01
▁अनिवार्य	-11.01
▁pretty	-11.01
ट्ट	-11.01
▁वायु▁प्रदूषण	-11.0101
▁fellow	-11.0101
▁ಸಕ್ಕರೆ	-11.0101
▁चमत्कार	-11.0101
▁burden	-11.0101
▁ಹೆಜ್ಜೆ	-11.0101
▁ದಂಪತಿ	-11.0101
र्व	-11.0102
▁with▁its	-11.0102
▁मुज्ह	-11.0102
▁1942	-11.0102
▁loans	-11.0104
IL	-11.0104
▁कहलाता▁है	-11.0105
▁वक़्त	-11.0105
▁winter	-11.0105
▁अक्तूबर	-11.0105
▁ಇಂಡಿಯನ್	-11.0106
▁ಕಪ್ಪು	-11.0108
▁reduce	-11.0109
most	-11.0111
▁Tri	-11.0111
र्ण	-11.0111
▁आश्चर्य	-11.0113
▁संस्करण	-11.0113
क़्स	-11.0114
▁लाइन	-11.0114
್ತ	-11.0115
▁educated	-11.0115
▁बंध	-11.0119
▁जा▁रहा▁है	-11.0119
▁documents	-11.0121
▁अमेरिका▁में	-11.0123
▁petrol	-11.0123
न▁से	-11.0124
ಜ್ಜ	-11.0124
You	-11.0128
▁reward	-11.0129
ing▁their	-11.013
▁दौर	-11.0132
▁rare	-11.0132
ವಾಸ	-11.0133
▁widely	-11.0133
-2	-11.0134
▁Britain	-11.0136
हें	-11.0137
▁कर▁के	-11.0137
▁ಫಿ	-11.0138
▁सम्राट	-11.0138
▁पिछले▁साल	-11.0139
▁फंच	-11.0141
▁inner	-11.0142
▁के▁विकास	-11.0144
▁evolution	-11.0144
▁ಚುನಾವಣಾ	-11.0144
▁ಮೇಲ್	-11.0145
s▁about	-11.0146
▁faithful	-11.0147
धी	-11.015
▁ಮೃತ	-11.015
▁was▁very	-11.0151
ೀನ್	-11.0152
▁ಜೀವನದ	-11.0153
▁aware▁of	-11.0154
ने▁वालों	-11.0154
▁49	-11.0154
▁destroy	-11.0155
ने▁हेतु	-11.0157
शि	-11.0157
▁th	-11.0158
▁सक्षम	-11.0159
ks	-11.0164
▁colours	-11.0164
▁verdict	-11.0165
▁ರಚಿಸ	-11.0165
▁ಹುದ್ದೆ	-11.0166
▁Yoga	-11.0173
▁Ph	-11.0175
▁होते▁थे	-11.0175
s▁were▁present	-11.0175
▁खाने	-11.0177
▁मजबूर	-11.0177
▁दास	-11.0178
दास	-11.0178
.8	-11.0179
▁Pat	-11.0181
ीम	-11.0182
▁नेटवर्क	-11.0183
▁चरित्र	-11.0184
▁स्त्रोत	-11.0184
▁महात्मा▁गांधी	-11.0184
▁सुबह	-11.0184
▁smoke	-11.0184
▁ಸೆಕ್ಷನ್	-11.0184
▁पर▁ही	-11.0184
▁Moreover	-11.0184
▁of▁the▁Congress	-11.0185
▁remarkable	-11.0185
▁AIR	-11.0186
▁allegations	-11.0186
▁advantage	-11.0186
▁ಪ್ರೊ	-11.0187
▁के▁अंत▁में	-11.0187
▁throughout	-11.0187
▁anywhere	-11.0187
▁ship	-11.0195
rit	-11.0196
▁दी▁गयी	-11.0197
▁RSS	-11.0198
▁के▁क्षेत्र▁में	-11.0199
▁शुल्क	-11.0199
23	-11.02
▁band	-11.0203
▁निर्धार	-11.0203
▁actions	-11.0203
▁दि	-11.0205
▁even▁though	-11.0206
▁involved▁in	-11.0208
▁हुए▁हैं	-11.0208
ತಃ	-11.0209
ing▁out	-11.0209
▁से▁कोई	-11.021
▁ಜಿಲ್ಲೆಯಲ್ಲಿ	-11.021
▁As▁per	-11.0211
▁recovered	-11.0211
▁score	-11.0211
▁promise	-11.0213
▁ಲೀಟರ್	-11.0214
▁ದಿನದ	-11.0214
▁ಮತ್ತು▁ಇತರ	-11.0216
▁उद	-11.0217
▁Jag	-11.0219
▁दाम	-11.022
▁मन▁में	-11.0227
▁आपसे	-11.0228
▁vary	-11.0228
▁ಹೆಚ್ಚಳ	-11.0229
▁ಲೇ	-11.023
▁ಜಲ	-11.023
▁फेंक	-11.023
ॉल	-11.0231
ಿಯಾ	-11.0231
ged	-11.0231
ಯ▁ಬಗ್ಗೆ	-11.0232
▁to▁form	-11.0232
▁to▁start	-11.0232
▁ತೀರ	-11.0232
▁alive	-11.0233
▁southern	-11.0234
▁Qu	-11.0234
ेय	-11.0234
▁isnt	-11.0236
गन	-11.0237
▁दवा	-11.0237
▁ಅಲ	-11.0238
भा	-11.0239
▁driver	-11.024
▁and▁one	-11.024
▁आबादी	-11.0241
▁mixed	-11.0242
▁Sea	-11.0244
▁ತನಿಖೆ▁ನಡೆಸ	-11.0244
000	-11.0245
▁करते▁समय	-11.0246
▁रहेगा	-11.0246
▁जैन	-11.0246
ಂಟು	-11.0247
थे	-11.0248
▁ಸಭೆಯ	-11.0249
.7	-11.0249
▁ಅವರಲ್ಲಿ	-11.025
▁encourage	-11.0253
▁suit	-11.0254
ನಾಯಕ	-11.0255
ಾಗಲಿ	-11.0256
▁ಪಾಲಿಸ	-11.0257
re▁are▁some	-11.0258
ूनी	-11.0261
▁he▁would	-11.0261
▁ಸಲ	-11.0262
▁सफेद	-11.0263
▁पार्क	-11.0263
▁ನಿಜವಾದ	-11.0264
jan	-11.0264
▁दुकान	-11.0265
▁breed	-11.0265
▁minor	-11.0266
▁प्रतियोगिता	-11.0267
ऍ	-11.0267
▁wait	-11.0267
▁universal	-11.0267
▁Budget	-11.0267
▁heritage	-11.0267
▁मुंह	-11.0267
▁Ramalinga	-11.0267
▁बात▁है	-11.0268
▁1989	-11.0268
▁two▁years	-11.0268
▁क्ष	-11.0268
▁Subhashbabu	-11.0268
▁ಬಹುಮಾನ	-11.0268
▁folk	-11.0268
▁ನಿರ್ದಿಷ್ಟ	-11.027
ದರ್	-11.027
▁2014	-11.027
▁bench	-11.027
▁ದೃಢ	-11.0271
▁62	-11.0272
▁पांव	-11.0273
▁चाय	-11.0273
▁कल्याण	-11.0273
▁समझौते	-11.0274
▁दिशा▁में	-11.0274
til	-11.0274
▁ಸಂಗಡ	-11.0275
▁लख	-11.0276
इंडियन	-11.0277
▁agency	-11.0278
▁referred▁to	-11.0278
▁factor	-11.0278
▁ವಿವೇಕ	-11.0278
▁to▁Rs	-11.028
▁ಸಂಪುಟ	-11.0281
▁the▁use▁of	-11.0282
▁maoM	-11.0283
ए▁गए	-11.0283
▁नै	-11.0284
back	-11.0284
▁conversation	-11.0286
▁की▁योजना	-11.0287
▁ICC	-11.029
▁लंबे	-11.0292
▁के▁साथ▁साथ	-11.0292
▁ಗ್ರಾಂ	-11.0293
gg	-11.0295
▁producer	-11.0295
▁चीजें	-11.0297
▁For▁the	-11.03
▁caused▁by	-11.03
▁jute	-11.03
▁It▁is▁the	-11.0301
▁लु	-11.0304
▁डि	-11.0306
▁जरूरी▁है	-11.0308
▁या▁किसी	-11.0308
▁guide	-11.0309
▁victims	-11.0309
जब	-11.0311
▁and▁s	-11.0311
tor	-11.0312
▁Asian	-11.0313
ता▁को	-11.0314
▁designed	-11.0317
▁भाग▁में	-11.0318
▁prove	-11.0318
ned	-11.0319
▁he▁wrote	-11.0319
▁सम्	-11.0321
▁ತಡೆ	-11.0322
▁cup	-11.0325
▁यानि	-11.0327
▁will▁take	-11.0328
▁sense▁of	-11.0334
▁will▁have	-11.0335
▁कर▁सकें	-11.0337
▁Report	-11.0337
▁innings	-11.0338
▁ಸರ್	-11.034
▁लंबा	-11.0342
▁बना▁दिया	-11.0343
▁out▁the	-11.0344
▁ಕೀರ್ತನೆ	-11.0345
रह	-11.0345
▁ಮಂಡಳಿ	-11.0347
▁ರೈಲ್ವೆ	-11.035
▁compassion	-11.035
▁व्यावसायिक	-11.035
▁कैंसर	-11.0351
▁judgment	-11.0351
▁तालिबान	-11.0351
▁पर्यटक	-11.0351
▁Moses	-11.0351
▁lord	-11.0351
▁loving	-11.0351
ब्ब	-11.0351
▁1935	-11.0352
▁neck	-11.0353
▁यह▁कह	-11.0353
▁combined	-11.0353
garh	-11.0354
LA	-11.0354
General	-11.0354
▁the▁US	-11.0354
▁cur	-11.0354
▁broke	-11.0355
▁hill	-11.0355
▁ಕೋರ	-11.0355
▁Very	-11.0357
▁स्वागत	-11.0357
▁ಅನುಕೂಲ	-11.0357
62	-11.0358
▁इस▁समय	-11.0359
mail	-11.036
▁promised	-11.036
▁मुझे▁लगता▁है▁कि	-11.036
▁देख▁सकते▁हैं	-11.0361
▁Pune	-11.0362
▁मंत्र	-11.0364
▁ಮನೆಗೆ	-11.0364
▁आधारित	-11.0365
▁materials	-11.0365
ೆಂಬ	-11.0367
▁दैनिक	-11.0368
▁learnt	-11.0368
net	-11.0369
▁ವೆ	-11.0369
63	-11.0369
▁limits	-11.037
▁हिंदु	-11.037
pati	-11.037
s▁for▁the	-11.0371
temple	-11.0372
▁Te	-11.0372
▁ಮುಂದ	-11.0372
लाई	-11.0373
ದ▁ನಂತರ	-11.0373
▁ವಿರೋಧ	-11.0374
▁टा	-11.0375
▁छा	-11.0375
▁serving	-11.0376
▁per▁cent▁of▁the	-11.0376
हित	-11.0377
लेट	-11.0377
set	-11.0378
▁rulers	-11.0381
▁कहना▁है▁कि	-11.0386
▁finding	-11.0388
▁were▁injured	-11.0388
▁ಸೆರೆ	-11.0389
रजी	-11.0389
▁carefully	-11.039
▁consists	-11.039
ರೂಪ	-11.039
▁बुरा	-11.0391
▁of▁other	-11.0392
▁wild	-11.0393
▁''	-11.0395
▁traditions	-11.0395
▁texts	-11.0395
▁counter	-11.0396
▁तमिल	-11.0396
लोक	-11.0397
▁ಕಡೆಗೆ	-11.0398
▁fourth	-11.0399
ನಾವು	-11.0401
HO	-11.0408
हाल	-11.041
▁ನಾನ	-11.0412
▁ಉಂಟಾಗ	-11.0417
▁ನೇ	-11.042
▁She▁is	-11.0421
▁showing	-11.0421
▁ಮಿತಿ	-11.0422
s▁name	-11.0423
▁ನಿರೀಕ್ಷಿಸ	-11.0423
ऐ	-11.0424
▁ಶವ	-11.0425
bul	-11.0426
▁belonging	-11.0428
▁पट	-11.0428
▁grave	-11.0429
▁निष्कर्ष	-11.043
▁bear	-11.0432
ing▁his	-11.0433
▁करने▁वाली	-11.0433
▁constitute	-11.0434
▁संयुक्त▁राष्ट्र	-11.0435
des	-11.0435
▁Washington	-11.0435
▁confident	-11.0435
▁herself	-11.0436
re▁going▁to	-11.0436
▁ಕೊಹ್ಲಿ	-11.0436
▁ಶಿಕ್ಷೆ	-11.0436
जि	-11.0436
▁ಮರೆಯ	-11.0436
▁दिला	-11.0437
▁1929	-11.0437
▁उत्तम	-11.0438
▁of▁J	-11.0438
ती▁है▁और	-11.0441
▁under▁Section	-11.0442
▁समझौता	-11.0443
▁का▁उल्लेख	-11.0443
▁ಬಂಧಿಸ	-11.0444
गण	-11.0444
▁implementation	-11.0445
gam	-11.0445
२▁में	-11.0446
▁ಪದವಿ	-11.0446
▁सहयोगी	-11.0446
ing▁with	-11.0447
▁गहर	-11.0448
▁judgement	-11.045
▁ವೈದ್ಯರ	-11.045
▁ಗಾಂಧಿ	-11.045
▁प्रसाद	-11.0451
▁महत्वपूर्ण▁है	-11.0453
▁कोयला	-11.0455
▁ಕ್ಷೇತ್ರದ	-11.0456
▁ಕಪ್	-11.0456
▁had▁to▁be	-11.0456
▁की▁प्रक्रिया	-11.0457
▁petition	-11.0462
▁नहीं▁हुआ	-11.0462
▁or▁even	-11.0463
▁ಏಳು	-11.0463
योग	-11.0464
▁प्रबंधन	-11.0464
▁पंच	-11.0469
▁ರಾಜಕಾರಣ	-11.0469
▁ISBN	-11.0469
▁a▁major	-11.0471
gra	-11.0472
▁to▁re	-11.0473
▁Music	-11.0474
▁the▁National	-11.0475
▁recommended	-11.0476
ನೀ	-11.0477
▁or▁other	-11.0478
▁ದೆಹಲಿಯ	-11.0478
▁धरती	-11.0478
▁और▁इस▁तरह	-11.0479
▁given▁to	-11.0479
▁a▁case	-11.048
▁our▁own	-11.0485
▁from▁one	-11.0486
▁बैठक	-11.0487
ಫಿ	-11.049
▁54	-11.0491
4)	-11.0492
▁and▁it▁is	-11.0493
▁ಕಳ	-11.0496
▁cloth	-11.05
▁ಜೈ	-11.05
▁मैं▁आपको	-11.05
▁तु	-11.0501
▁How▁do	-11.0501
▁और▁उन्होंने	-11.0502
ेंट	-11.0503
▁Park	-11.0503
▁संभाल	-11.0505
▁on▁earth	-11.0505
ature	-11.0507
CO	-11.0507
▁citizen	-11.0508
▁दिये▁गये	-11.0509
▁ವಾಸ	-11.0513
चे	-11.0513
ಸ್ಟರ್	-11.0514
▁is▁expected	-11.0515
▁rec	-11.0516
▁ठोस	-11.0517
▁Black	-11.0521
▁दार्शनिक	-11.0521
▁eventually	-11.0521
▁Perhaps	-11.0521
▁Abraham	-11.0521
▁Society	-11.0521
तांत्रिक	-11.0521
▁behaviour	-11.0521
▁sheep	-11.0522
87	-11.0522
▁अनुचित	-11.0522
▁पहलू	-11.0522
▁rally	-11.0522
▁wheat	-11.0523
ವಾರ	-11.0524
▁defend	-11.0526
▁the▁war	-11.0527
▁ಬೇಸರ	-11.0527
▁ಶ್ರೇಷ್ಠ	-11.0528
▁ಪೈಕಿ	-11.0529
▁absolutely	-11.0529
ಳಿಯ	-11.0529
▁निगम	-11.053
▁meat	-11.0533
▁select	-11.0533
▁ಲೈ	-11.0534
▁जाते▁थे	-11.0535
▁engineering	-11.0536
▁जगा	-11.054
स्टर	-11.0541
▁Senior	-11.0542
▁bowling	-11.0543
▁ಮಗಳು	-11.0543
▁रूस	-11.0543
▁अंग्रेज़ी	-11.0544
र्ग	-11.0544
▁with▁you	-11.0545
▁ಮತ್ತಿತರರ	-11.0547
eg	-11.0549
▁carried	-11.055
▁छाप	-11.0551
▁shops	-11.0551
ಿದವು	-11.0552
hy	-11.0553
ಮಾನ್	-11.0553
▁ಆಪ್	-11.0553
▁The▁most	-11.0554
▁ಗೃಹ	-11.0554
▁ये▁सब	-11.0555
▁5:	-11.0555
▁ಸರಕಾರದ	-11.0555
▁an▁a	-11.0558
▁का▁हिस्सा	-11.0559
▁awarded	-11.0559
▁Mala	-11.056
▁असम	-11.0561
▁greatly	-11.0561
▁volume	-11.0561
▁ಗಿ	-11.0562
.6	-11.0563
▁हैं▁कि	-11.0565
▁purposes	-11.0566
ill	-11.0567
▁ಕುರಿತ	-11.0568
▁to▁put	-11.0569
▁had▁not	-11.057
▁मांस	-11.0571
-4	-11.0572
▁records	-11.0573
las	-11.0573
▁could▁not▁be	-11.0576
▁चाहिये	-11.0577
ಿದ್ದನು	-11.0577
▁applications	-11.0578
▁करता	-11.0579
▁पर्व	-11.0579
▁tonnes	-11.0581
▁ya	-11.0581
▁बिहार	-11.0582
▁ಹೊರಗೆ	-11.0582
▁ನೆರವೇರ	-11.0582
ಿದ್ದೀರಿ	-11.0584
▁प्राथमिक	-11.0584
▁Hari	-11.0587
ना▁चाहते▁थे	-11.0587
▁knowing	-11.0588
कीय	-11.0588
वश	-11.059
▁ಸಂವಿಧಾನ	-11.059
▁Ramesh	-11.0591
ದಲ್ಲಿದ್ದ	-11.0592
▁सोचा	-11.0592
▁ರಾಮ್	-11.0593
▁की▁दर	-11.0593
ಶೀಲ	-11.0594
▁to▁another	-11.0595
▁के▁आकार	-11.0597
▁recommendations	-11.0599
▁परामर्श	-11.0599
ult	-11.06
▁will▁be▁taken	-11.0601
▁ವಿದೇಶ	-11.0601
vent	-11.0603
▁a▁particular	-11.0604
but	-11.0605
▁विधानमंडल	-11.0606
▁crowd	-11.0606
▁federal	-11.0607
▁खतरनाक	-11.0607
▁इत्यादि	-11.0607
▁प्रारम्भ	-11.0608
▁ಕ್ಯಾನ್ಸರ್	-11.0608
▁ಆದುದರಿಂದ	-11.0608
▁ವ್ಯತ್ಯಾಸ	-11.0608
▁multiple	-11.0608
▁ಮಾತ್ರವಲ್ಲ	-11.061
▁friendship	-11.061
▁the▁decision	-11.061
▁sum	-11.061
▁a▁different	-11.0612
▁ಟೀ	-11.0615
▁instructions	-11.0615
▁environmental	-11.0615
▁ಕೋಪ	-11.0619
▁author	-11.0619
ped	-11.062
mor	-11.062
▁विवेक	-11.0623
▁तक▁पहुँच	-11.0623
▁of▁many	-11.0625
▁of▁Akbar	-11.0625
▁may▁have	-11.0627
▁ಪರಿಶೀಲನೆ▁ನಡೆಸ	-11.0628
▁किया▁जाना▁चाहिए	-11.0628
▁जो▁की	-11.0628
▁110	-11.063
▁and▁you	-11.0635
ेड	-11.0636
▁UN	-11.0638
▁की▁रक्षा	-11.0639
▁गणित	-11.064
▁semi	-11.0641
▁के▁आसपास	-11.0641
▁to▁fight	-11.0642
ಮೇ	-11.0642
▁Change	-11.0643
▁-▁1	-11.0643
ಕೊಟ್ಟ	-11.0644
which	-11.0644
▁क्षण	-11.0647
m▁going	-11.0649
ಂದಿ	-11.065
▁challenges	-11.0651
ect	-11.0652
▁was▁the▁first	-11.0654
▁historic	-11.0654
ियों▁के▁लिए	-11.0656
er▁and	-11.0659
▁बनाया▁गया	-11.0661
शु	-11.0661
▁ಕಾಶ್ಮೀರ	-11.0661
▁ನಿರ್ದೇಶನ	-11.0664
▁manufacturing	-11.0665
▁हरि	-11.0666
▁ಕಲಿಸ	-11.0666
ित▁कर	-11.0666
ುವಂಥ	-11.0666
फर	-11.0668
ಬೇಕಿತ್ತು	-11.0668
▁Puran	-11.067
▁Gra	-11.067
▁adults	-11.067
▁foundation	-11.0671
▁ವರ್	-11.0671
▁ಸಿದ್ದ	-11.0672
▁the▁one	-11.0674
▁of▁A	-11.0674
▁talent	-11.0674
रोप	-11.0674
▁despite	-11.0674
tru	-11.0675
▁trans	-11.0676
▁is▁there	-11.0676
▁घन	-11.0677
▁was▁an	-11.0677
▁माना	-11.0677
ीज	-11.0679
ೂರ್	-11.068
▁ಕಾಂಗ್ರೆಸ್▁ನ	-11.0681
▁हिन्दी▁में	-11.0682
▁ಸಂಭ್ರಮ	-11.0683
▁कृत्य	-11.0683
▁bo	-11.0685
▁सांप्रदायिक	-11.0686
▁survived	-11.0688
कभी	-11.0688
▁wing	-11.0688
▁Civil	-11.0688
▁ऊंचा	-11.0692
▁Japanese	-11.0693
▁Roman	-11.0693
▁मुद्दा	-11.0694
ों▁के▁प्रति	-11.0694
▁चैनल	-11.0694
umb	-11.0694
▁residents	-11.0694
▁परीक्षा	-11.0694
▁पार्श्व	-11.0695
▁fought	-11.0695
▁ಅಭ್ಯಾಸ	-11.0695
▁अग्नि	-11.0695
▁ಕಾಯಿಲೆ	-11.0695
▁विद्यालय	-11.0695
▁babies	-11.0695
▁civilization	-11.0695
▁1928	-11.0695
▁planned	-11.0695
▁प्रदान▁कर	-11.0696
▁extension	-11.0696
▁1931	-11.0696
▁daughters	-11.0696
▁करोड़े▁रु	-11.0696
ind	-11.0698
▁Let▁us	-11.0699
▁सीट	-11.0699
▁की▁इस	-11.07
ಓ	-11.0701
▁निचले	-11.0701
▁निवास	-11.0702
▁ಪೊ	-11.0702
ಿರುವುದಾಗಿ	-11.0703
▁telling	-11.0707
▁ಅಪಾರ	-11.0709
▁है▁जिसे	-11.0709
Ch	-11.071
▁of▁the▁State	-11.0713
▁links	-11.0714
▁हिन्दु	-11.0716
िर	-11.0717
▁a▁bit	-11.0719
जी▁ने	-11.0722
▁डॉ	-11.0723
▁was▁given	-11.0723
▁की▁कहानी	-11.0725
SP	-11.0725
▁reform	-11.0726
▁शक	-11.0728
▁ಇರಲಿ	-11.0728
▁religions	-11.0728
▁ಫೈ	-11.0729
▁discussions	-11.0729
▁In▁his	-11.0731
▁skills	-11.0731
▁dealing	-11.0731
▁to▁follow	-11.0732
चऋ	-11.0734
मिल	-11.0736
▁ರವಿ	-11.0737
वाली	-11.074
स्क	-11.0741
▁यौन	-11.0741
▁to▁build	-11.0742
ically	-11.0743
▁the▁end▁of▁the	-11.0746
ವೈ	-11.0746
▁What▁do	-11.0747
▁ಈ▁ಸಿನಿಮಾ	-11.0748
▁and▁how	-11.0749
▁बनाए	-11.0752
▁ಮದುವೆಯಾಗ	-11.0754
▁listen▁to	-11.0754
▁the▁role	-11.0754
▁ಚೆ	-11.0758
▁sharing	-11.0759
▁उड़	-11.076
▁importance▁of	-11.0762
▁ಗುರು	-11.0763
▁You▁know	-11.0764
ೀಗ	-11.0764
▁faced	-11.0766
▁में▁इस	-11.0767
IN	-11.0767
▁who▁has	-11.0767
▁मसल	-11.0768
▁context	-11.0769
ುವೆನು	-11.0771
▁Please	-11.0773
▁के▁विरूद्ध	-11.0774
▁tourists	-11.0774
▁infection	-11.0776
▁ಶುದ್ಧ	-11.0777
34	-11.0778
▁ईसा	-11.0779
ದಲ್ಲಿದೆ	-11.078
▁alternative	-11.0781
▁definition	-11.0781
▁वैश्विक	-11.0781
▁batsmen	-11.0782
▁explanation	-11.0782
▁strategy	-11.0782
▁[...]	-11.0782
▁voting	-11.0782
▁glory	-11.0783
▁क्लब	-11.0783
▁smooth	-11.0784
oke	-11.0786
▁ಸಾವಿನ	-11.0786
▁आचरण	-11.0787
int	-11.0788
▁imports	-11.0788
▁drawn	-11.0788
▁piece	-11.0789
▁for▁your	-11.0789
▁सम्पूर्ण	-11.079
ಸಾಧ್ಯವಿದೆ	-11.079
▁prose	-11.0791
▁ಈ▁ವಿಚಾರ	-11.0791
So	-11.0793
▁ಅಪ್ಪ	-11.0793
▁difficulties	-11.0793
▁साहित्यिक	-11.0794
▁ruler	-11.0796
▁and▁re	-11.0797
▁maintained	-11.0799
▁११	-11.08
▁ಹಿನ್ನೆಲೆಯಲ್ಲಿ	-11.0802
▁teach	-11.0804
▁ವಾಸ್ತವ	-11.0805
ಗಳು▁ಹಾಗೂ	-11.0806
▁and▁what	-11.0806
▁wings	-11.0807
▁होता▁है▁कि	-11.0808
▁ಸತ್ತ	-11.081
▁अधिकतम	-11.0811
UR	-11.0812
▁ಪ್ರಾಥಮಿಕ	-11.0812
▁जाने▁वाले	-11.0813
▁अध	-11.0813
▁ಅವರೇ	-11.0816
▁deeply	-11.0819
▁tail	-11.082
▁in▁case	-11.0821
ida	-11.0821
▁pair	-11.0823
▁Pri	-11.0824
▁ನರ	-11.0825
▁चाल	-11.0826
लु	-11.0828
▁not▁just	-11.0831
ल्	-11.0831
▁ಮಾಹಿತಿ▁ನೀಡ	-11.0833
▁अर्ध	-11.0834
▁interview	-11.0835
avan	-11.0835
▁to▁face	-11.0837
lash	-11.0838
ಿನ್	-11.0842
▁पढ़ा	-11.0843
dal	-11.0845
able▁to	-11.0847
▁join	-11.0847
▁said▁the	-11.0848
▁ತಂದ	-11.0848
▁ಕಾಂಗ್ರೆಸ್▁ಪಕ್ಷ	-11.0849
ಥ್	-11.0849
▁to▁write	-11.0849
▁ಅರಣ್ಯ	-11.085
ಗಳಾಗಿ	-11.085
ಿದ್ದರಿಂದ	-11.0851
▁resulted▁in	-11.0852
▁सहमत	-11.0852
pped	-11.0853
▁holds	-11.0854
▁answered	-11.0855
▁guilty	-11.0855
81	-11.0856
▁earn	-11.0858
▁ji	-11.0858
ಹೋಗ	-11.086
▁एशिया	-11.086
▁विश्लेषण	-11.0861
▁on▁the▁ground	-11.0861
▁web	-11.0862
▁के▁दशक▁में	-11.0863
▁in▁Europe	-11.0864
▁ತೆರೆ	-11.0865
▁made▁of	-11.0865
▁pages	-11.0866
▁और▁इन	-11.0866
▁off▁the	-11.0867
धर	-11.0868
~	-11.087
▁मतदान	-11.087
▁कहानिय	-11.087
▁uniform	-11.0871
▁global▁warming	-11.0871
▁ಪಶ್ಚಿಮ	-11.0871
▁expensive	-11.0871
▁ಮಂಗಳೂರು	-11.0871
▁ಸಂಕಷ್ಟ	-11.0871
▁आरम्भ	-11.0871
▁₹	-11.0871
▁transferred	-11.0871
▁ನಗದು	-11.0871
▁native	-11.0872
▁प्राप्त▁कर	-11.0872
▁ನಿತ್ಯ	-11.0873
▁दर्द	-11.0873
▁इकाई	-11.0874
▁Series	-11.0874
▁alert	-11.0874
न्यास	-11.0875
▁Arabic	-11.0875
▁स्थित▁है	-11.0875
▁stick	-11.0877
मंडल	-11.088
जैसे	-11.088
कुछ	-11.088
ते▁हैं▁और	-11.0881
▁बुद्धि	-11.0883
05	-11.0885
▁ಆರಂಭಿಕ	-11.0885
▁बहादुर	-11.0885
▁ಸಹೋದರ	-11.0886
bhp	-11.0886
▁polls	-11.0887
▁में▁वे	-11.0888
▁ರಮೇಶ್	-11.0889
▁Ministry	-11.0889
▁Apart	-11.0891
▁ठीक▁है	-11.0891
▁ಆಸೆ	-11.0895
▁इस▁कारण	-11.0895
▁से▁प्राप्त	-11.0895
ಯಾಗಿರುವ	-11.0899
▁suspended	-11.0899
▁में▁उन्होंने	-11.09
yo	-11.09
▁the▁real	-11.0901
▁sick	-11.0902
▁weapons	-11.0904
▁has▁come	-11.0905
▁recognised	-11.0908
▁pur	-11.0908
▁महसूस▁कर	-11.0908
▁proportion	-11.0909
ban	-11.0912
s▁such▁as	-11.0913
▁और▁उनका	-11.0913
लिंग	-11.0914
was	-11.0916
stan	-11.0916
▁to▁look	-11.0917
▁का▁इस्तेमाल	-11.092
▁ಸಚಿವರು	-11.0922
▁ಪಂ	-11.0924
▁खतरा	-11.0925
नगर	-11.0925
▁ನೀರ	-11.0927
▁ಕಾಡ	-11.0927
▁pieces	-11.0929
▁ಪಡೆಯಲು	-11.0929
▁from▁all	-11.0931
▁There▁are▁no	-11.0932
▁खिल	-11.0932
▁वह▁अपने	-11.0932
ानुसार	-11.0933
▁ಎಚ್ಚರಿಕೆ	-11.0934
ाइल	-11.0935
▁भारत▁को	-11.0936
▁Pur	-11.0938
▁को▁ही	-11.0939
▁तुम्हार	-11.094
ose	-11.0941
38	-11.0942
▁सुनवाई	-11.0943
▁wants▁to	-11.0943
▁Bra	-11.0944
rous	-11.0944
▁दी▁है	-11.0945
▁alliance	-11.0947
izing	-11.0947
▁went▁on	-11.0947
▁ವಿಶ್ವವಿದ್ಯಾಲಯ	-11.0948
▁ಭಾ	-11.0948
▁तीसरी	-11.0949
ता▁हूं	-11.0949
▁प्राप्ति	-11.095
▁(196	-11.0952
je	-11.0952
▁Unicode	-11.0953
▁बढे	-11.0953
▁ವಿಕೆಟ್	-11.0955
▁ಆಲ್	-11.0955
tle	-11.0956
▁परिवेश	-11.0958
▁डॉलर	-11.0959
▁satellite	-11.096
▁receiving	-11.096
▁ಕಪೂರ್	-11.096
▁डॉक्टर	-11.096
▁point▁of▁view	-11.096
▁ಹಾಜರಿದ್ದರು	-11.096
▁क़ुरान	-11.096
▁ಬಟ್ಟೆ	-11.096
▁उपयुक़्त	-11.0961
▁guidance	-11.0961
▁सका	-11.0961
▁temporary	-11.0961
▁रामलिंग	-11.0961
▁ಜಂಟಿ	-11.0961
▁उत्तर▁में	-11.0962
▁ಕಡತ	-11.0962
▁प्रिय	-11.0963
▁अदालत▁में	-11.0964
▁marked	-11.0964
न्ध	-11.0964
▁trip	-11.0964
▁consciousness	-11.0965
▁golden	-11.0966
▁ನಂಬಿಕೆಯ	-11.0967
▁honor	-11.0967
▁ವಾಯು	-11.0968
▁ವಾತಾವರಣ	-11.0968
▁ताज	-11.0968
▁पिच	-11.0969
▁a▁certain	-11.0973
▁1,000	-11.0973
lor	-11.0974
▁sufficient	-11.0975
▁ರೀತಿ	-11.0976
▁ಸವಾಲು	-11.0977
▁प्रेरणा	-11.0977
▁हो▁गये	-11.0978
▁cinema	-11.0982
▁doctor	-11.0982
TC	-11.0982
ರ್ಥ	-11.0983
▁time▁to	-11.0983
▁ಲೆ	-11.0983
eshwar	-11.0983
▁ki	-11.0984
▁ವರ್ಗ	-11.0985
▁दबा	-11.0985
▁१७	-11.0986
▁सूख	-11.0986
वाद्य	-11.0988
▁and▁un	-11.0989
▁expenses	-11.099
▁भरत	-11.099
▁indicate	-11.0992
डऋए	-11.0992
▁जाने▁पर	-11.0992
▁in▁life	-11.0994
ties	-11.0995
▁Facebook	-11.0997
▁ದೂರು	-11.0999
ಲಾರ	-11.0999
हु	-11.1
▁Si	-11.1001
ris	-11.1001
▁छोड	-11.1001
▁हो▁सकता▁है▁कि	-11.1002
ಗಳಿಲ್ಲ	-11.1002
▁विकसित▁हो	-11.1002
ने▁की▁कोशिश▁कर	-11.1003
▁बजा	-11.1003
▁some▁other	-11.1003
▁चु	-11.1004
▁fly	-11.1007
▁ग्र	-11.1008
रम	-11.1008
▁गर्भ	-11.1009
▁बैठे	-11.101
▁ईरान	-11.1015
ೇಜ್	-11.1022
▁gun	-11.1024
nk	-11.1025
▁this▁year	-11.1025
▁ಉನ್ನತ	-11.1027
▁humanity	-11.1029
▁ಟೈ	-11.1029
▁शीर्षक	-11.103
ाबाद	-11.103
eh	-11.1032
▁ಸಕ್ರಿಯ	-11.1033
she	-11.1034
जीवन	-11.1035
▁ಮಾಡುವುದಿಲ್ಲ	-11.1036
ುವದಿಲ್ಲ	-11.1037
▁ಸೇವಿಸ	-11.1039
▁practices	-11.1039
वीं▁शताब्दी▁क	-11.104
▁ದೇವಸ್ಥಾನ	-11.104
▁Start	-11.1041
सभा	-11.1042
▁it▁will	-11.1043
▁coach	-11.1043
ಬರ್	-11.1047
▁Hanuman	-11.105
▁बाज़ार	-11.105
▁ಬೃಹತ್	-11.105
▁Lucknow	-11.105
▁ಆಧ್ಯಾತ್ಮಿಕ	-11.105
▁ಪುನಃ	-11.105
▁ನೂರಾರು	-11.105
▁producing	-11.105
▁Think	-11.105
▁1908	-11.1051
▁ಅವರು▁ತಮ್ಮ	-11.1051
▁ತಾಣ	-11.1052
▁ಒಮ್ಮೆ	-11.1054
mic	-11.1056
▁वाकई	-11.1056
▁Mahadevi	-11.1056
▁kill	-11.1058
▁को▁कम▁कर	-11.106
iva	-11.106
▁ಎತ್ತ	-11.1062
BJP	-11.1062
ದಲ್ಲಿದ್ದಾರೆ	-11.1063
▁बोर्ड	-11.1063
ें▁और	-11.1064
ves	-11.1065
ೇಯ	-11.1065
▁ಸೌ	-11.1065
▁Fort	-11.1065
▁guard	-11.1065
ना▁पड़ा	-11.1066
▁अक्षर	-11.1066
EN	-11.1072
▁ಭೂಮಿಯ	-11.1072
▁तब▁भी	-11.1072
▁उदार	-11.1073
▁granted	-11.1075
ಚಿತ್ರ	-11.1079
▁लिखा▁है	-11.1079
▁qua	-11.108
▁even▁more	-11.1083
▁विचारों	-11.1084
MC	-11.1086
▁buses	-11.1086
ಪರ	-11.1086
▁occurs	-11.1086
▁की▁समस्या	-11.1086
▁ರಲ್ಲಿ	-11.1087
▁to▁move	-11.1087
▁उम	-11.1087
▁समाजवादी	-11.109
डिया	-11.1093
▁the▁children	-11.1093
▁कहला	-11.1093
▁it▁to	-11.1094
▁ಇದುವರೆಗೂ	-11.1094
▁improvement	-11.1094
▁your▁own	-11.1096
ರಿಯಾ	-11.1096
▁his▁first	-11.1097
▁प्रशंसा	-11.1097
ಂಕ	-11.1098
▁Mal	-11.1101
▁ಕಠಿಣ	-11.1102
led▁by	-11.1102
▁sho	-11.1103
▁of▁Islam	-11.1103
▁जाती	-11.1103
▁उन्होंने▁अपने	-11.1104
▁ऊँच	-11.1105
▁दिवस	-11.1105
▁के▁पश्चात	-11.1108
▁रुप	-11.1109
▁and▁have	-11.111
▁around▁the	-11.1112
▁creation	-11.1114
भांति	-11.1115
▁in▁the▁last	-11.1119
▁bound	-11.1119
▁9.	-11.1123
▁मेरे▁पास	-11.1124
▁experienced	-11.1126
▁ಈ▁ವಿಷಯ	-11.1127
▁whether▁the	-11.1127
▁भेजा	-11.1127
▁of▁time	-11.1129
▁ಸಿದ್ಧತೆ	-11.113
▁प्रारूप	-11.113
ಬಂಧ	-11.1131
▁ಜಾಲ	-11.1131
oli	-11.1131
ರಿಸ	-11.1132
▁ratio	-11.1133
▁us▁to	-11.1134
▁mu	-11.1134
ಶಾಸ್ತ್ರ	-11.1135
ों▁को▁भी	-11.1135
ೊಬ್ಬರು	-11.1136
▁क्षेत्रों	-11.1137
ने▁लगी	-11.1139
▁analysis	-11.114
▁ಸೋಂಕು	-11.1141
▁ಐತಿಹಾಸಿಕ	-11.1141
▁ನ್ಯೂ	-11.1141
▁ಸಂಶೋಧನೆ	-11.1141
▁ಮತ್ತೊಮ್ಮೆ	-11.1141
▁lady	-11.1141
▁Local	-11.1141
▁Surdas	-11.1141
▁ಅನುಮಾನ	-11.1142
▁विचारधारा	-11.1143
▁मोटे	-11.1143
▁centres	-11.1143
▁चयन	-11.1144
▁वृ	-11.1145
▁ಫೈನಲ್	-11.1146
▁सुप्रीम▁कोर्ट	-11.1147
▁faith▁in	-11.1147
ೀತ	-11.1148
▁शो	-11.1148
▁ಹ್ಯಾ	-11.1149
▁his▁family	-11.1149
▁to▁her	-11.1149
▁Did	-11.1149
▁ಗ್ರಾಮೀಣ	-11.115
▁color	-11.115
▁विनाश	-11.1151
▁stream	-11.1151
▁व्यक्त	-11.1152
ಯಿ	-11.1153
▁खाद्य	-11.1154
विज्ञान	-11.1156
▁आध	-11.1156
▁kings	-11.1156
ನ್ಯ	-11.1156
ev	-11.1156
▁अपेक्षा	-11.1157
s▁will	-11.1157
▁देखिए	-11.1161
ಮರ್	-11.1161
▁ಪಟ್ಟಿಯಲ್ಲಿ	-11.1162
▁बहन	-11.1163
ುತ್ತಿರುವುದು	-11.1163
▁और▁इसके	-11.1165
▁रखना	-11.1166
▁ದೊರೆಯ	-11.1167
डि	-11.1167
west	-11.1168
▁of▁C	-11.1168
▁ಆ್ಯ	-11.1169
ो▁के	-11.117
▁ಬ್ಯಾ	-11.1173
▁to▁maintain	-11.1175
▁तरीक	-11.1177
▁ಅದರ▁ಬಗ್ಗೆ	-11.1177
▁ಕೊಡುಗೆ	-11.1178
▁stones	-11.1178
▁माह	-11.1178
ೋದ	-11.1179
47	-11.1181
▁settled	-11.1182
▁Ganges	-11.1182
▁after▁a	-11.1182
88	-11.1183
▁and▁so	-11.1185
▁को▁यह	-11.1186
▁तट	-11.1187
▁characteristic	-11.1188
▁ಹಿಡಿದ	-11.1188
▁ಕಲ್ಪಿಸ	-11.1189
▁pe	-11.1189
▁चट्टान	-11.1189
▁exam	-11.119
▁मानी▁जाती▁है	-11.1192
▁हो▁जाए	-11.1192
▁Bha	-11.1193
IA	-11.1193
ने▁में▁मदद	-11.1196
ಂಪ	-11.1196
▁लगाने	-11.1196
ने▁की▁कोशिश	-11.1197
ी▁भी	-11.1197
▁लक्ष्मण	-11.1198
▁ಬೆಂಗಳೂರಿನ	-11.1198
▁chemical	-11.1201
ैल	-11.1201
▁ಸ್ನೇಹಿತರ	-11.1201
▁ಆಟೋ	-11.1202
61	-11.1202
▁If▁we	-11.1205
▁regard	-11.1206
▁one▁another	-11.1207
ened	-11.1212
▁ಬಿಟ್ಟ	-11.1212
▁थोड़े	-11.1215
▁Aa	-11.1217
▁ಶಾಸಕರು	-11.1219
▁पाय	-11.1219
▁हो▁जाने	-11.122
▁ಈ▁ರೀತಿಯ	-11.122
▁ಭಾವ	-11.1221
ಳೆಯ	-11.1221
ೋಪ	-11.1225
▁ಭವಿಷ್ಯ	-11.1225
▁ಮಾಡುತ್ತಿದ್ದಾರೆ	-11.1225
▁the▁spirit	-11.1226
▁tourist	-11.1226
▁organized	-11.1226
03	-11.1228
ಹೋ	-11.1229
▁ಘೋಷಣೆ	-11.1231
▁दूरी	-11.1231
▁ನೋಡಲು	-11.1231
▁विधायिका	-11.1232
▁ಯಾದವ್	-11.1233
▁ऊंची	-11.1233
▁ಕರ್ತವ್ಯ	-11.1233
▁But▁we	-11.1233
▁ಸುಧಾರಣೆ	-11.1233
▁लोगो	-11.1233
▁jump	-11.1233
▁फलस्वरूप	-11.1233
▁ईसाई	-11.1233
▁wonderful	-11.1234
▁1938	-11.1234
ುವ▁ಸಾಧ್ಯತೆ▁ಇದೆ	-11.1234
▁ड़ाल	-11.1234
▁his▁brother	-11.1235
▁Still	-11.1235
▁अनुदान	-11.1236
▁assured	-11.1236
हन	-11.1239
▁ಕ್ರಿಯೆ	-11.124
▁Him	-11.124
▁worldwide	-11.1242
▁किसी▁को	-11.1243
▁ಸಾರಿಗೆ	-11.1244
▁root	-11.1244
▁from▁their	-11.1244
▁सम्बन्ध	-11.1246
▁to▁continue	-11.1247
▁But▁no	-11.1247
▁grand	-11.1247
▁causing	-11.1248
▁ಸುಧಾರಿಸ	-11.125
▁Video	-11.125
▁scared	-11.1252
ಡಿಯ	-11.1252
▁कमेटी	-11.1252
ಿಂದಲೇ	-11.1253
▁ಸ್ಥಳದಲ್ಲಿ	-11.1254
ಗೇ	-11.1255
▁People▁are	-11.1255
▁ಹೊತ್ತ	-11.1255
unt	-11.1255
▁Due	-11.1256
▁ವಲಯ	-11.1257
▁ಉತ್ಪನ್ನ	-11.1257
▁contribution	-11.1258
▁जाता	-11.1259
▁फी	-11.126
▁कहा▁जा▁सकता▁है	-11.1261
▁on▁her	-11.1262
ಿಸಿದನು	-11.1262
▁mills	-11.1264
dis	-11.1264
▁deposit	-11.1266
▁ರೆಡ್ಡಿ	-11.1267
▁कि▁वो	-11.1267
▁ರಾವ್	-11.1268
▁ಆತನಿಗೆ	-11.1268
▁dr	-11.1268
▁आवाज़	-11.1269
▁ಕಣ	-11.1269
ಸೋ	-11.127
▁one▁is	-11.127
▁successfully	-11.1271
▁मन्त्र	-11.1271
▁ಭೇಟಿ▁ನೀಡ	-11.1273
ಲ್ಪಡುವ	-11.1274
वै	-11.1276
▁marks	-11.1277
▁There▁was▁a	-11.1279
▁a▁total	-11.128
▁अभियोग	-11.1281
sen	-11.1282
टिक	-11.1286
ಾಗಿರುವ	-11.1286
▁ನೀಡುತ್ತದೆ	-11.1288
▁तोड़	-11.1289
▁the▁Governor	-11.129
▁से▁भी▁अधिक	-11.129
Pa	-11.1291
▁जंग	-11.1293
▁resigned	-11.1293
▁ಕುಸಿತ	-11.1294
▁ಉತ್ತರಿಸ	-11.1296
ವಾದಿ	-11.1298
▁चीज़ें	-11.1298
▁ಮುಖಂಡರು	-11.13
ियों▁द्वारा	-11.1302
ಫಾ	-11.1304
▁ತಯಾರಿ	-11.1306
▁ಇಂದಿನ	-11.1307
▁of▁Delhi	-11.1308
▁Ju	-11.1309
▁by▁an	-11.1309
▁ನಮ್ಮಲ್ಲಿ	-11.131
▁discovered	-11.131
▁बर्फ	-11.1311
▁तीर्थ	-11.1311
▁ocean	-11.1313
▁न्यू	-11.1316
▁में▁जो	-11.1316
▁consumer	-11.1319
▁he▁will	-11.1321
▁prefer	-11.1321
▁ಬೆಳೆಸ	-11.1322
▁in▁England	-11.1324
Re	-11.1324
▁ಆರೋಪಿಗಳ	-11.1324
▁components	-11.1325
▁चालुक़्य	-11.1325
▁marble	-11.1325
▁Museum	-11.1325
▁शाहजहाँ	-11.1325
▁ಫೇಸ್▁ಬುಕ್	-11.1325
▁Mohammad	-11.1325
▁ಲೆಕ್ಕ	-11.1326
▁absence	-11.1327
▁losing	-11.1327
▁sell	-11.1327
▁announcement	-11.1328
ಂಗಿ	-11.1328
▁right▁to	-11.1329
▁ओवर	-11.1329
▁mankind	-11.1329
▁ವರೆಗೂ	-11.133
WY	-11.133
▁स्वाधीनता	-11.1331
▁urged	-11.1332
▁OF	-11.1335
▁ಚಿತ್ರೀಕರಣ	-11.1336
▁पहले▁से▁ही	-11.1337
ase	-11.1338
What	-11.1339
▁favour	-11.1339
era	-11.134
▁ve	-11.1341
न▁ने	-11.1343
ತಿಯ	-11.1343
▁rent	-11.1343
▁the▁event	-11.1344
▁living▁in	-11.1345
▁बरस	-11.1346
aOr	-11.1348
▁symbol	-11.1348
s▁up	-11.135
▁ಹೇಳಿದ್ದು	-11.135
▁reasonable	-11.135
▁नेशनल	-11.1353
▁कभी▁नहीं	-11.1355
▁ಟಿವಿ	-11.1357
▁reign	-11.1358
▁दिया▁कि	-11.1362
▁ಕಳೆದುಕೊಂಡ	-11.1362
या▁जाता▁है	-11.1364
right	-11.1364
▁ವಿಧಿಸ	-11.1365
धारा	-11.1367
▁संविधान▁में	-11.137
▁written▁in	-11.1372
▁हिट	-11.1372
▁रहना	-11.1373
▁comfort	-11.1374
▁finished	-11.1377
▁fled	-11.1377
▁अपने▁घर	-11.1379
▁सदन▁के	-11.138
▁attached	-11.138
▁tube	-11.1383
दो	-11.1383
▁56	-11.1384
ವೆಂದರೆ	-11.1384
▁Ti	-11.1385
▁देवनागरी	-11.1387
ct	-11.1391
▁ಸ್ಥಾನಕ್ಕೆ	-11.1392
▁कू	-11.1394
▁Foreign	-11.1394
▁160	-11.1395
▁we▁do	-11.1396
ों▁में▁से▁एक▁है	-11.1397
ದಾಗ	-11.1399
▁अफगानिस्तान	-11.14
▁पू	-11.14
▁the▁nation	-11.1401
▁ಭಾರತವು	-11.1404
▁ಸ್ಥಿರ	-11.1405
▁And▁this▁is	-11.1406
rum	-11.1407
▁दुर्ग	-11.1407
▁And▁what	-11.1409
ियों▁पर	-11.1411
▁schedule	-11.1411
▁enable	-11.1414
▁in▁Bengaluru	-11.1415
▁ಈತನ	-11.1415
▁amendment	-11.1417
▁जाती▁हैं	-11.1417
▁emphasis	-11.1419
▁ಕೊರೋನಾ	-11.1419
▁imprisonment	-11.1419
▁ಗರಿಷ್ಠ	-11.1419
▁ಪಶ್ಚಿಮ▁ಬಂಗಾಳ	-11.1419
▁ತಾಂತ್ರಿಕ	-11.1419
▁शांत	-11.1419
▁Mission	-11.1419
▁1949	-11.142
▁ಪವರ್	-11.1421
▁font	-11.1421
ाब	-11.1422
▁of▁various	-11.1422
▁Fund	-11.1422
ಾನ್	-11.1424
▁The▁injured	-11.1425
▁Political	-11.1425
▁ಮುಸ್ಲಿಂ	-11.1426
▁slightly	-11.1427
▁advanced	-11.1427
s▁Witnesses	-11.1427
▁of▁Rajasthan	-11.1427
▁As▁the	-11.143
▁member▁of▁the	-11.143
चक	-11.143
▁think▁that	-11.1431
▁believes	-11.1431
▁Russian	-11.1431
▁nuclear	-11.1431
▁Shiv▁Sena	-11.1432
▁ensure▁that	-11.1433
▁भु	-11.1435
▁खर	-11.1436
▁other▁than	-11.1436
▁every▁year	-11.1437
▁the▁sea	-11.1437
ates	-11.1437
▁an▁Indian	-11.1438
▁complain	-11.1438
▁preaching	-11.1439
▁उपलब्ध▁हैं	-11.1439
▁जुटा	-11.1441
▁mood	-11.1442
▁hour	-11.1442
▁grown	-11.1444
ೆಯಲ್ಲಿ	-11.1444
ते▁हे	-11.1446
▁Bri	-11.1447
▁bull	-11.1447
▁by▁his	-11.145
ed▁as	-11.145
▁eating	-11.1451
▁in▁Pakistan	-11.1454
▁की▁भी	-11.1456
ेक	-11.1457
▁ढांचे	-11.146
▁very▁good	-11.1461
▁Tribunal	-11.1461
खर	-11.1461
▁की▁क्षमता	-11.1464
▁ಪ್ರತಿಯೊಬ್ಬ	-11.1464
▁रानी	-11.1465
▁wi	-11.1468
▁influenced	-11.1468
ಯುತ	-11.147
▁नहीं▁होते	-11.147
▁generations	-11.1472
▁Fire	-11.1474
▁tons	-11.1475
gn	-11.1476
▁because▁he	-11.1478
▁डाक	-11.148
तीं▁हैं	-11.148
▁comments	-11.1481
ail	-11.1485
ಾಲಯ	-11.1486
्न	-11.1487
▁photos	-11.1488
ी▁जाने▁वाली	-11.1488
▁sat	-11.1491
▁ಅಮ	-11.1491
▁says▁that	-11.1492
▁download	-11.1493
▁Gar	-11.1493
▁overs	-11.1494
▁63	-11.1494
▁ನ್ಯಾಯಮೂರ್ತಿ	-11.1495
▁हिस्से	-11.1496
▁हम▁सब	-11.1496
▁ಮುಂದುವರಿಯ	-11.1497
ಾನಿ	-11.1498
ट्	-11.1498
▁ಇದರ▁ಬಗ್ಗೆ	-11.1498
-0	-11.15
▁tribal	-11.15
▁residence	-11.1502
▁consequences	-11.1502
▁crop	-11.1502
▁sudden	-11.1504
रिया	-11.1506
▁दिनों	-11.1506
▁चाहे▁तो	-11.1507
.9	-11.1508
▁देती▁हैं	-11.1508
▁ಇವೆಲ್ಲ	-11.1508
▁के▁अनुरूप	-11.1509
▁गुणवत्ता	-11.151
▁a▁part▁of	-11.1511
▁attacks	-11.1512
▁customs	-11.1512
ria	-11.1512
▁of▁the▁city	-11.1512
▁forests	-11.1513
▁पाषाण	-11.1513
▁eastern	-11.1513
▁Chhattisgarh	-11.1513
▁ಧೋನಿ	-11.1513
▁तराश	-11.1513
▁fashion	-11.1513
▁उत्सव	-11.1513
▁ಅಸಮಾಧಾನ	-11.1513
ಿಕ್	-11.1514
▁1936	-11.1514
▁pride	-11.1514
▁1994	-11.1514
▁fever	-11.1514
▁उपयुक्त	-11.1515
▁Kabul	-11.1515
▁to▁meet	-11.1517
▁Time	-11.1517
▁तुम्हे	-11.1517
▁the▁poor	-11.1519
▁sculpture	-11.1519
▁sl	-11.1519
▁the▁political	-11.152
▁लेखन	-11.1521
42	-11.1521
▁ob	-11.1522
▁ब्रह्मा	-11.1524
▁boys	-11.1525
▁conscious	-11.1526
▁साहित्य▁में	-11.1526
▁imp	-11.1527
▁to▁serve	-11.1528
▁solid	-11.1529
▁नऋ	-11.1529
▁Mon	-11.1529
▁ಪೀಠ	-11.153
▁aging	-11.153
▁finance	-11.153
▁seeds	-11.1531
under	-11.1531
▁कि▁एक	-11.1532
▁creating	-11.1532
▁जाएं	-11.1533
▁equality	-11.1533
ಡರ್	-11.1534
▁न्यूनतम	-11.1536
▁टीवी	-11.1539
▁फ़ोन	-11.1539
▁ಪೂ	-11.154
▁emission	-11.154
▁ಸಮುದ್ರ	-11.1541
ನಾಥ್	-11.1546
ದಿಂದಾಗಿ	-11.1548
▁vice	-11.1549
▁the▁book	-11.155
▁पुल	-11.155
▁गए▁थे	-11.155
▁to▁go▁to	-11.1551
▁to▁the▁people	-11.1552
▁said▁to▁be	-11.1553
▁ಗೋವಾ	-11.1554
▁ಕುಡಿಯ	-11.1554
▁accounts	-11.1555
▁of▁religion	-11.1558
्ज़	-11.1558
▁व्याख्या	-11.1559
ಫೆ	-11.1559
▁की▁सबसे	-11.1562
TI	-11.1562
मक	-11.1563
▁उतऋ	-11.1564
्ह	-11.1564
▁Among▁the	-11.1564
▁allowed▁to	-11.1564
▁in▁the▁form	-11.1564
▁ಗೊತ್ತು	-11.1566
▁कैल	-11.1567
ने▁से▁रोक	-11.1567
▁Head	-11.1567
▁progressive	-11.1568
▁is▁so	-11.1571
▁achieve	-11.1571
▁san	-11.1573
ING	-11.1577
▁संचालन	-11.158
लाइन	-11.1581
▁फि	-11.1581
▁अर्	-11.1584
▁pi	-11.1585
▁near▁the	-11.1586
ೇಶ	-11.1587
ೇನೂ	-11.1587
▁the▁heart	-11.1588
▁नहीं▁कर▁सकता	-11.1589
▁have▁the	-11.159
▁गए▁हैं	-11.1591
ಿರಾ	-11.1591
▁Language	-11.1591
▁ತೊ	-11.1593
▁divide	-11.1593
▁करने▁के▁बाद	-11.1593
tes	-11.1594
▁ಕಾರ್ಯಕರ್ತರು	-11.1594
RO	-11.1595
asa	-11.1595
ಗಳ▁ಮೂಲಕ	-11.1599
ld	-11.1599
press	-11.1599
▁App	-11.16
▁constant	-11.16
▁idol	-11.16
ುವಿರಿ	-11.1601
▁virus	-11.1601
ast	-11.1602
▁exports	-11.1602
▁of▁what	-11.1603
▁Ran	-11.1603
LE	-11.1604
▁ring	-11.1604
▁नहीं▁करता	-11.1604
▁मृत	-11.1605
ಯಿದೆ	-11.1606
▁परस्पर	-11.1608
▁घुटन	-11.1608
▁appears	-11.1608
▁संभावित	-11.1608
▁legislature	-11.1608
▁complicated	-11.1608
▁encounter	-11.1608
▁यकीन	-11.1608
▁ಪೂರೈಕೆ	-11.1608
▁powder	-11.1608
▁पैमाने▁पर	-11.1608
▁Through	-11.1608
▁significance	-11.1609
▁Verma	-11.1609
▁कहानियाँ	-11.1609
▁जबरदस्त	-11.1609
▁Name	-11.1609
▁अधिकारिता	-11.1609
▁कारावास	-11.161
▁1940	-11.161
▁priority	-11.1611
▁1919	-11.1612
▁टीका	-11.1612
▁snow	-11.1613
▁a▁problem	-11.1614
▁George	-11.1615
▁दोबारा	-11.1616
▁valuable	-11.1617
▁ಅದೊಂದು	-11.1617
▁हमारे▁लिए	-11.1617
▁की▁यह	-11.1617
▁ver	-11.162
▁the▁game	-11.1621
▁tomb	-11.1621
▁बौद्धिक	-11.1621
▁प्रबंध	-11.1622
▁गयी▁थी	-11.1622
▁सीधी	-11.1623
ed▁with▁the	-11.1625
singh	-11.1627
▁खासकर	-11.1628
Amitabh▁Bachchan	-11.1628
▁push	-11.163
▁स्टार	-11.1631
ಚ್ಛ	-11.1631
▁attract	-11.1632
▁written▁by	-11.1632
್▁ನಲ್ಲಿ	-11.1633
▁portion	-11.1634
▁stayed	-11.1634
▁between▁India	-11.1635
▁निर	-11.1636
▁ಚಂದ್ರ	-11.1637
▁resignation	-11.164
s▁us	-11.164
▁objects	-11.1642
ಕಿಂಗ್	-11.1643
ो▁का	-11.1643
▁नीतियों	-11.1643
class	-11.1644
▁sla	-11.1646
▁की▁जरूरत	-11.1649
ा▁गया▁है	-11.1649
▁तरफ	-11.1649
ಾಂತರ	-11.165
▁these▁things	-11.1651
▁दिया▁और	-11.1652
▁कर्ण	-11.1653
▁किसानों	-11.1656
▁dome	-11.1657
ati	-11.1657
▁reply	-11.1657
▁आधा	-11.1658
▁to▁God	-11.1658
कै	-11.1658
▁ನೀಡಲು	-11.1659
▁Kal	-11.166
▁मू	-11.166
▁ಇಲಾಖೆಯ	-11.1662
▁फीड	-11.1662
▁की▁स्थापना▁की	-11.1663
ई▁गई	-11.1663
▁ಸಮರ್ಥ	-11.1666
▁the▁video	-11.1666
▁हत्या	-11.1666
▁ra	-11.1669
▁and▁more	-11.167
▁से▁जुड़े	-11.1671
▁busy	-11.1672
▁storage	-11.1672
osis	-11.1673
s▁no	-11.1675
▁ಹುಟ್ಟ	-11.1675
▁to▁the▁spot	-11.1676
▁Nor	-11.1677
▁his▁death	-11.1678
▁ಪ್ರಾರಂಭ	-11.1679
▁the▁child	-11.1679
▁गऋ	-11.1688
ಕ್ಕಿ	-11.1692
▁भागों▁में	-11.1695
ಾಗಿದ್ದು	-11.1696
storey	-11.1697
43	-11.1697
▁यज्ञ	-11.1698
s▁why	-11.17
ग्रस्त	-11.17
▁रत्न	-11.1702
▁inquiry	-11.1702
▁ಐಪಿಎಲ್	-11.1703
▁आपराधिक	-11.1704
▁महासागर	-11.1704
▁Indonesia	-11.1704
°	-11.1704
▁excellent	-11.1705
▁ಮುಂಚೆ	-11.1705
▁nominated	-11.1705
▁वितरण	-11.1705
▁ಚಿನ್ನ	-11.1705
▁जलवायु▁परिवर्तन	-11.1706
े▁गये	-11.1706
▁अंतराल	-11.1706
s▁all	-11.1707
▁विपक्ष	-11.1707
▁theatre	-11.1707
▁का▁विस्तार	-11.1707
▁भंडार	-11.1707
▁लागत	-11.171
▁silent	-11.1711
▁शेयर	-11.1712
▁artist	-11.1713
▁devotees	-11.1714
▁जा▁सकते▁हैं	-11.1714
▁ಮನುಷ್ಯನ	-11.1715
▁ನೋಡೋಣ	-11.1716
▁कस	-11.1717
,6	-11.1718
lit	-11.1719
ಂಡರ್	-11.1719
सिंह	-11.1719
▁350	-11.172
▁awards	-11.1721
▁have▁already	-11.1721
▁of▁war	-11.1722
TS	-11.1722
▁drinking▁water	-11.1723
▁take▁the	-11.1724
▁ದಾಖಲಿಸ	-11.1725
▁बड़ै	-11.1727
▁maha	-11.1728
▁as▁soon▁as	-11.1729
ों▁मे	-11.1729
▁advance	-11.1729
हो	-11.173
▁जायें	-11.173
▁ಉದ್ದ	-11.1731
But	-11.1731
▁virtual	-11.1732
▁for▁the▁purpose	-11.1732
▁TED	-11.1735
ಯಾನ್	-11.1736
▁consult	-11.1737
▁ನಿಧನ	-11.1737
Ma	-11.1738
ಬೇಡ	-11.1739
▁ru	-11.174
▁Sho	-11.174
▁Gi	-11.174
▁Inter	-11.174
▁rape	-11.1744
▁ಪ್ರೀತಿಸ	-11.1744
▁एक▁विशेष	-11.1744
▁a▁member	-11.1747
ंडा	-11.1748
68	-11.1749
▁enjoyed	-11.1749
▁was▁found	-11.1749
▁ಮತ್ತ	-11.1749
▁बनाते▁हैं	-11.1749
▁One▁of▁the	-11.175
hat	-11.1752
▁शाम	-11.1752
▁difficulty	-11.1753
uc	-11.1755
ness▁of	-11.1755
ंख	-11.1756
▁और▁दूसरे	-11.1756
with	-11.1757
▁ಪಡೆ	-11.1759
▁mistake	-11.176
▁बंद▁कर	-11.1761
pet	-11.1761
▁में▁नहीं	-11.1762
▁damaged	-11.1762
▁घोड़	-11.1764
ौल	-11.1765
न्स	-11.1767
▁ಅವರಿಂದ	-11.1767
▁the▁need	-11.1768
▁पौध	-11.1768
▁पाप	-11.177
uddin	-11.177
▁है▁कि▁वह	-11.1771
ावस्था	-11.1773
▁Security	-11.1776
▁हवाई	-11.1777
▁can▁also	-11.1779
▁The▁case	-11.1779
▁की▁अ	-11.1779
ಡುವಿನ	-11.1779
▁ನಿಲ್ಲಿಸ	-11.178
▁in▁the▁name▁of	-11.178
▁poets	-11.1781
लो	-11.1782
PA	-11.1783
▁think▁about	-11.1783
▁reader	-11.1783
ಣ್ಯ	-11.1784
%)	-11.1784
▁ಉತ್ತರ▁ಪ್ರದೇಶ	-11.1785
▁purchase	-11.1786
▁आपूर्ति	-11.1787
aran	-11.1788
▁opposite	-11.1788
▁ಪ್ರಕರಣ▁ದಾಖಲಿಸಿ	-11.1788
क्त	-11.1788
down	-11.179
hana	-11.179
▁धरती▁पर	-11.1791
▁के▁बराबर	-11.1793
▁से▁बच	-11.1794
▁decline	-11.1795
▁अमरीकी	-11.1795
▁की▁घोषणा	-11.1795
▁imposed	-11.1797
▁ಅತ್ಯಾಚಾರ	-11.1798
ना▁होता▁है	-11.1798
▁is▁only	-11.1798
▁ಒಳ್ಳೇ	-11.1798
▁ತೆರೆದ	-11.1799
▁take▁place	-11.18
▁उम्मीद	-11.18
▁विकिरण	-11.1801
▁introduction	-11.1801
▁मंजूर	-11.1801
etic	-11.1801
▁remote	-11.1802
▁contemporary	-11.1802
▁Aadhaar	-11.1802
▁अजीब	-11.1802
▁dialogue	-11.1802
▁ನೃತ್ಯ	-11.1802
▁ಅಪ್ಲಿಕೇಶನ್	-11.1802
▁consumption	-11.1802
▁leaflet	-11.1802
▁ರೋಹಿತ್▁ಶರ್ಮಾ	-11.1802
म्बर	-11.1803
▁झेल	-11.1803
▁1975	-11.1803
▁ऊंचाई	-11.1804
▁लाहौर	-11.1805
▁ಎಲ್ಲವನ್ನೂ	-11.1805
▁बनाने▁का	-11.1805
▁जंगल	-11.1806
▁of▁State	-11.1807
▁pollutants	-11.1808
▁ऑस्ट्रेलिया	-11.181
▁the▁LORD	-11.1814
ಾಗಿದ್ದಾರೆ	-11.1814
▁factory	-11.1814
▁Satan	-11.1816
▁distinction	-11.1816
▁उन▁दिनों	-11.1818
▁vegetables	-11.1818
▁मील	-11.1818
▁बहुत▁कुछ	-11.1819
पुराण	-11.1819
े▁का	-11.182
▁UP	-11.182
ना▁पड़ता▁है	-11.182
▁ಎಂಬುದ	-11.1821
▁ಗಂಡ	-11.1822
▁Us	-11.1823
▁पुष्टि	-11.1824
▁चमक	-11.1824
▁ಪ್ರಾರಂಭಿಸ	-11.1824
▁dust	-11.1825
▁महीनों	-11.1829
▁that▁if	-11.183
ುವದಕ್ಕೆ	-11.1831
▁चीजों	-11.1831
▁to▁your	-11.1831
▁ಪರಿಶೀಲಿಸ	-11.1835
▁besides	-11.1836
▁ಕಾಲದಲ್ಲಿ	-11.1838
▁ನೇಮಕ	-11.1838
▁his▁mother	-11.1838
▁MPs	-11.1838
▁प्रावधान	-11.1839
▁से▁नहीं	-11.1839
कर्म	-11.1841
ಂತೆಯೇ	-11.1843
▁ನೀರನ್ನು	-11.1844
▁ಹೆಂಡತಿ	-11.1845
▁योग्यता	-11.1845
▁ticket	-11.1845
▁structures	-11.1845
▁?▁”	-11.1846
▁to▁try	-11.1848
▁रहें	-11.185
▁on▁that	-11.185
▁stages	-11.1852
▁फारस	-11.1852
▁we▁need	-11.1854
▁against▁them	-11.1856
▁dismissed	-11.1857
▁इल	-11.1858
▁संगठ	-11.1859
चि	-11.1859
▁exp	-11.186
▁आं	-11.1861
Na	-11.1861
▁Lok	-11.1861
▁गेंदबाजी	-11.1862
▁हुआ▁कि	-11.1863
ा▁में	-11.1863
▁मिलकर	-11.1864
ाने	-11.1865
▁the▁present	-11.1865
▁ಕಾರಿನ	-11.1865
▁greatest	-11.1865
सू	-11.1868
▁ನಾನೇ	-11.1869
▁threat	-11.187
▁talks	-11.187
ಯನ್ನ	-11.187
▁ने▁यह	-11.187
rr	-11.1872
▁स्तन	-11.1874
▁ಫೆ	-11.1874
▁to▁protect	-11.1876
▁सद	-11.1877
▁जिससे▁कि	-11.1877
▁experts	-11.1879
RC	-11.1881
su	-11.1881
▁गज	-11.1882
t▁be	-11.1884
डल	-11.1885
▁11.	-11.1885
▁बुरी	-11.1886
ದವರು	-11.1887
▁of▁some	-11.1887
▁बजाय	-11.1888
▁१३	-11.1888
PS	-11.1891
,8	-11.1891
59	-11.1892
ಕೊಂಡು	-11.1893
▁Word	-11.1896
▁wo	-11.1896
▁prior	-11.1896
▁ಮಾಡುತ್ತದೆ	-11.1898
▁ಮುಂತಾದ	-11.1899
ता▁की	-11.1899
▁अंतरिक्ष	-11.19
▁प्रोटीन	-11.19
▁mumbai	-11.19
▁समारोह	-11.19
▁Italy	-11.19
▁legend	-11.19
▁categories	-11.19
▁edition	-11.19
▁अवतार	-11.19
ाधीन	-11.19
▁टाटा	-11.19
▁मजिस्ट्रेट	-11.19
▁basically	-11.19
▁oath	-11.19
▁स्वभाव	-11.19
▁harmful	-11.1901
▁Durga	-11.1901
▁मूल्यांकन	-11.1901
▁six▁months	-11.1902
▁वृक्ष	-11.1902
▁they▁will	-11.1902
▁रखता▁है	-11.1905
▁fix	-11.1906
▁blow	-11.1907
▁The▁second	-11.1907
▁ऋण	-11.1908
▁Canada	-11.1909
▁ंं	-11.191
▁ಜನಾಂಗ	-11.1911
▁encouraged	-11.1912
▁बने▁हैं	-11.1913
▁विकास▁दर	-11.1913
▁प्ले	-11.1913
▁ಪವಿತ್ರ	-11.1914
▁गाँधी	-11.1915
roll	-11.1915
पक्ष	-11.1916
ೋದು	-11.1917
▁surround	-11.1918
ವಲ	-11.192
▁72	-11.192
▁addressed	-11.1921
▁78	-11.1922
▁तुम्हारे	-11.1923
▁mill	-11.1924
पीठ	-11.1924
▁specimens	-11.1925
▁ಸ್ವಂತ	-11.1926
▁की▁रचना	-11.1926
hir	-11.1926
,5	-11.1928
चना	-11.1932
▁ಗೊತ್ತಾಗ	-11.1932
nes	-11.1933
▁दिया▁जाना▁चाहिए	-11.1933
▁Kul	-11.1933
dha	-11.1935
▁ಹಿಡಿಯ	-11.1936
ದಾನ	-11.1937
▁attain	-11.1937
▁ವಿಚಾರಣೆ▁ನಡೆಸ	-11.1939
▁ಹಿಡಿದು	-11.194
▁the▁capital	-11.1941
ुन	-11.1944
▁ಆನಂದ	-11.1944
TH	-11.1945
▁की▁अवधि	-11.1945
ುವದು	-11.1945
▁नोट	-11.1946
▁UK	-11.1948
ing▁from	-11.1949
▁adult	-11.1949
▁राजकुमार	-11.1951
▁ಸಂಘಟನೆ	-11.1951
▁Dal	-11.1952
▁installed	-11.1954
▁वेबसाइट	-11.1954
▁ರೋ	-11.1954
▁IT	-11.1954
tis	-11.1954
▁ಶ್ರೀಲಂಕಾ	-11.1955
▁यह▁है	-11.1957
▁Anand	-11.1958
▁द्वि	-11.1958
▁से▁पूर्व	-11.1959
पो	-11.196
▁ತ್ರಿ	-11.196
▁Institute▁of	-11.1961
▁९	-11.1961
▁Independence	-11.1961
▁आजाद	-11.1962
tel	-11.1963
▁47	-11.1963
▁saved	-11.1963
▁must▁have	-11.1964
▁के▁स्तर	-11.1964
▁gathered	-11.1965
▁ಯಾವತ್ತ	-11.1967
▁के▁बारे▁में▁सोच	-11.1967
▁ಇತರರು	-11.1968
▁मामले▁में	-11.1969
▁अस	-11.197
▁ಬೀ	-11.1972
▁हुये	-11.1972
▁medicine	-11.1973
▁hate	-11.1974
▁argument	-11.1974
▁played▁a	-11.1974
बाल	-11.1976
ದವರ	-11.1976
▁Union▁Minister	-11.1976
▁सिफारिश	-11.1976
▁it▁would	-11.1977
bu	-11.1977
▁guarantee	-11.1978
▁करो	-11.1978
ುವವರು	-11.1978
▁उदाहरण▁है	-11.1979
▁expanded	-11.1979
▁Amitabh	-11.198
▁prison	-11.198
▁verse	-11.1981
▁we▁were	-11.1982
ration	-11.1982
ಕ್ಷನ್	-11.1985
▁different▁from	-11.1986
▁known▁as▁the	-11.1988
▁ಲೇಖನ	-11.1989
ाक	-11.1989
▁deliver	-11.1989
▁statements	-11.199
▁परिचय	-11.199
▁और▁म	-11.1991
▁ನಾವ	-11.1995
▁ತೀರ್ಪು	-11.1995
▁सरकार▁का	-11.1995
ಬಲ್	-11.1995
▁कुछ▁और	-11.1996
▁But▁this▁is	-11.1997
▁कक्षा	-11.1997
temples	-11.1998
▁किसी▁एक	-11.1998
▁relevant	-11.1999
▁Lahore	-11.1999
▁ಮಾರುತಿ▁ಸುಜುಕಿ	-11.1999
▁Thousand	-11.1999
▁ढूंढ	-11.1999
▁ಆನ್	-11.1999
▁ಹೊಣೆ	-11.1999
▁Green	-11.2
▁Media	-11.2
ದಾಯಕ	-11.2001
▁ಎನ್ನುತ್ತಾರೆ	-11.2001
▁अंततः	-11.2002
▁initial	-11.2003
▁और▁तब	-11.2004
BS	-11.2004
▁frequently	-11.2005
TT	-11.2005
chand	-11.2005
▁Gold	-11.2005
▁and▁former	-11.2006
▁protect	-11.2006
▁व्यापारी	-11.2006
▁do▁that	-11.2007
▁time▁of	-11.2007
▁affection	-11.2007
एं▁हैं	-11.2008
ಬ್ರ	-11.2008
▁50,000	-11.2009
▁बंधन	-11.2009
▁List	-11.201
▁ಧನ	-11.2011
▁of▁the▁same	-11.2012
▁movements	-11.2013
ಲು▁ಸಾಧ್ಯ	-11.2013
ग़्	-11.2014
▁from▁this	-11.2018
▁possession	-11.2021
▁at▁this	-11.2022
▁फुट	-11.2025
▁tell▁you	-11.2026
▁ಸಭಾ	-11.2026
▁ಪಾವತಿ	-11.2027
s▁death	-11.2028
▁Officer	-11.2029
ಾಳ	-11.2029
▁काले	-11.2029
▁उनमे	-11.203
▁ಕುಲ	-11.203
▁संदेह	-11.2032
▁मैं▁एक	-11.2032
ಿರುವುದರಿಂದ	-11.2033
▁flower	-11.2035
▁बहुत▁सी	-11.2037
▁we▁don	-11.2037
▁कहते▁हैं▁कि	-11.2038
aI	-11.2039
▁ಹೂಡಿಕೆ	-11.2041
▁ಎಷ್ಟ	-11.2043
▁ಲಕ್ಷಣಗಳು	-11.2043
▁जग	-11.2044
▁सत	-11.2044
▁nationalism	-11.2046
ದಲ್ಲಿನ	-11.2046
▁requirements	-11.2047
▁do▁n	-11.205
▁the▁final	-11.2051
▁गुम्बद	-11.2052
ङ्	-11.2055
▁शुरू▁किया	-11.2055
▁खुला	-11.2057
▁to▁do▁so	-11.2057
▁make▁it	-11.2059
▁amazing	-11.206
▁प्रवाह	-11.206
ों▁के▁रूप▁में	-11.206
▁की▁खोज	-11.2061
▁ಓರ್ವ	-11.2063
uff	-11.2063
▁I▁thought	-11.2063
Sa	-11.2063
▁ಹೋಲ	-11.2063
▁ಗುಂಪು	-11.2064
rang	-11.2065
▁bit	-11.2066
elect	-11.2067
▁closely	-11.2067
head	-11.2068
▁१९४	-11.2068
ುಕೊಳ್ಳ	-11.2069
▁in▁Gujarat	-11.207
▁collected	-11.207
▁से▁मिल	-11.2071
द्दीन	-11.2072
▁ತಂಡಗಳು	-11.2072
▁क्षेत्र▁के	-11.2074
▁prayers	-11.2074
▁घुस	-11.2075
dding	-11.2075
▁pull	-11.2078
ंगल	-11.2078
art	-11.208
▁rupees	-11.208
▁ಭಾಗದಲ್ಲಿ	-11.2082
▁surprise	-11.2083
▁noted	-11.2084
विरोधी	-11.2085
▁ಮನುಷ್ಯ	-11.2086
▁Min	-11.2086
कु	-11.2086
▁भरी	-11.2088
▁studying	-11.2088
▁thin	-11.209
▁ಒಪ್ಪಿಕೊಂಡ	-11.209
ೋರ್	-11.209
▁wind	-11.209
▁शु	-11.209
▁ಅಭಿಮಾನಿಗಳ	-11.2093
▁sculptures	-11.2094
▁ಅಷ್ಟು	-11.2095
▁में▁बहुत	-11.2095
▁पौधे	-11.2096
▁said▁to	-11.2097
▁2.5	-11.2097
▁as▁we	-11.2098
▁Hinduism	-11.2098
▁मद्रास	-11.2099
▁ಮನಸ್ಸ	-11.2099
▁ಆಂತರಿಕ	-11.2099
▁Mysore	-11.2099
▁ವ್ಯಾಯಾಮ	-11.2099
▁प्रोग्राम	-11.2099
▁dropped	-11.2099
▁brave	-11.2099
▁Bahadur	-11.2099
ಯ▁ಮೇಲೆ	-11.2099
▁1937	-11.2099
▁which▁means	-11.21
▁फार्म	-11.21
▁reference	-11.2101
▁channel	-11.2101
▁ಅರ್ಧ	-11.2101
▁engaged	-11.2101
▁अक्ष	-11.2102
▁से▁प्रभावित	-11.2103
▁अतीत	-11.2103
▁में▁किसी	-11.2103
▁कर्	-11.2103
▁प्राप्त▁है	-11.2104
▁ಕಂಪನಿಯ	-11.2105
▁नरेंद्र	-11.2105
▁होती▁है▁और	-11.2105
nia	-11.2106
ಲೇಬೇಕು	-11.2108
▁हमले	-11.2109
ient	-11.2109
▁in▁which▁the	-11.211
▁ऑनलाइन	-11.2111
ock	-11.2111
ಿಕೊಳ್ಳಿ	-11.2111
ಲಿನ	-11.2112
▁ಮಾಹಿತಿಯನ್ನು	-11.2112
iness	-11.2113
▁to▁achieve	-11.2113
▁representation	-11.2114
▁ಬದಲಾಗ	-11.2115
49	-11.2116
▁magic	-11.212
▁storm	-11.212
aut	-11.2122
anga	-11.2122
ಿಕೆಯ	-11.2123
▁saint	-11.2124
▁scientist	-11.2124
▁We▁don	-11.2124
दि	-11.2125
▁ಪ್ರಸಾದ್	-11.2125
▁an▁average	-11.2126
▁एकत्र	-11.2126
▁ಸಾವಿರಾರು	-11.2128
▁through▁a	-11.2128
▁ನೇರವಾಗಿ	-11.2128
▁Panchayat	-11.2129
ಗಳನ್ನು▁ಹೊಂದಿದೆ	-11.2129
▁व्यक्ति▁को	-11.2132
▁is▁the▁most	-11.2132
▁स्थानों	-11.2133
▁we▁should	-11.2133
▁का▁मुख्य	-11.2134
▁सिखा	-11.2134
▁ನೀಡಿದರು	-11.2135
ೆಯನ್ನು	-11.2136
र्र	-11.2138
▁सबसे▁ज्यादा	-11.2138
stood	-11.2139
▁ಬ್ರ	-11.2139
▁इसमे	-11.214
ಭಾಗ	-11.214
▁burning	-11.2141
ಮ್ಯ	-11.2141
रन	-11.2144
▁गुना	-11.2144
▁messages	-11.2151
शव	-11.2151
▁you▁get	-11.2155
▁ಪಡಿಸ	-11.2155
▁Ab	-11.2158
यों▁को	-11.2159
▁मछल	-11.216
▁ಮೊತ್ತ	-11.216
27	-11.2162
▁ಡ್ರ	-11.2162
▁गतिविधि	-11.2164
▁जर्मन	-11.2164
▁ಪ್ರಕರಣದಲ್ಲಿ	-11.2164
ರು▁ಮತ್ತು	-11.2165
पु	-11.2166
▁fr	-11.2167
▁ಬಜೆಟ್	-11.2167
▁quit	-11.2168
▁club	-11.2169
▁1:	-11.2169
▁forced	-11.2169
▁lodged▁a	-11.2169
▁and▁later	-11.2171
▁has▁done	-11.2172
▁Third	-11.2172
dan	-11.2172
ಲು▁ಮತ್ತು	-11.2173
▁स्थ	-11.2174
▁of▁Nepal	-11.2174
▁कॉ	-11.2175
▁this▁period	-11.2175
▁is▁about	-11.2177
श्य	-11.2177
▁ಏರ	-11.2177
▁Deputy▁C	-11.2179
▁पाकिस्तानी	-11.2179
डर	-11.2181
टिंग	-11.2182
ಾರು	-11.2183
▁for▁an	-11.2183
▁of▁both	-11.2183
ಗೊಳಿಸಲು	-11.2183
▁हरा	-11.2184
ank	-11.2184
▁शैल	-11.2184
▁फ़िर	-11.2184
▁last▁week	-11.2185
▁बादल	-11.2185
gh	-11.2186
▁Control	-11.2189
▁headquarters	-11.2191
▁लहर	-11.2191
ಾಯಿ	-11.2192
▁ಬಿಡಿ	-11.2192
▁mix	-11.2192
8)	-11.2193
▁going▁to▁be	-11.2194
rama	-11.2195
राज्य	-11.2195
▁How▁do▁you	-11.2195
▁react	-11.2195
▁इसके▁बारे▁में	-11.2197
ency	-11.2198
▁कमा	-11.2199
▁टेलीफोन	-11.2199
▁ಪ್ರತಿದಿನ	-11.2199
ऑक्साइड	-11.2199
▁disaster	-11.22
▁resort	-11.22
▁bought	-11.22
▁शानदार	-11.22
▁ಹೊಡೆದ	-11.22
▁भौगोल	-11.22
▁insurance	-11.22
▁struck	-11.22
▁आस्था	-11.22
▁Parents	-11.22
▁डेटा	-11.22
▁dynasty	-11.22
▁स्वयं▁को	-11.2202
▁छप	-11.2202
▁comfortable	-11.2202
▁कहता▁है	-11.2202
ಾಧಿಕಾರಿ	-11.2203
▁of▁M	-11.2203
▁has▁the	-11.2204
▁the▁rest	-11.2204
▁as▁a▁result	-11.2204
▁citizenship	-11.2205
▁I▁mean	-11.2205
ಿಕಾ	-11.2206
▁दी▁जाती▁है	-11.2206
▁धूल	-11.2208
▁जाएंगे	-11.2208
▁ही▁था	-11.2208
▁घटा	-11.2209
▁constantly	-11.2209
▁sensitive	-11.221
▁ನೆಲೆ	-11.221
▁rail	-11.2211
▁ಅವಶ್ಯಕತೆ	-11.2211
▁is▁known▁as	-11.2211
▁gr	-11.2211
▁discover	-11.2211
▁possess	-11.2212
gy	-11.2212
▁मध्यम	-11.2212
▁संहिता	-11.2212
▁name▁is	-11.2215
IP	-11.2215
▁रथ	-11.2215
▁प्रबल	-11.2216
ದ್ದರಿಂದ	-11.2216
▁काम▁करने	-11.2217
▁spell	-11.2218
called	-11.2219
▁feeding	-11.2219
ಸ್ವಾಮಿ	-11.222
▁of▁law	-11.222
धन	-11.2222
house	-11.2222
▁देखे	-11.2222
▁पट्ट	-11.2224
ಾನು	-11.2224
▁वास्तविकता	-11.2225
ಲಿಯ	-11.2226
भारत	-11.2226
▁ಮಾನಸಿಕ	-11.2226
riya	-11.2227
▁आखिरी	-11.2234
ಿದರೂ	-11.2234
▁skill	-11.2236
▁Congress▁party	-11.2236
▁TO	-11.2237
▁काबुल	-11.2237
▁से▁आ	-11.2237
ವೀ	-11.2239
▁attend	-11.224
s▁life	-11.2242
▁naturally	-11.2243
▁निभा	-11.2244
▁हस्त	-11.2244
▁remaining	-11.2245
ಕ್ಸಿ	-11.2248
▁on▁which	-11.2248
▁that▁there	-11.2249
▁Nar	-11.2249
▁59	-11.2249
▁transportation	-11.2249
▁in▁two	-11.2249
▁can▁be▁seen	-11.225
▁ತಡ	-11.2253
▁relating	-11.2254
▁ಬಲಪಡಿಸ	-11.2256
▁too▁much	-11.2256
▁के▁प्रभाव	-11.2259
▁situated	-11.2262
▁अपने▁हाथ	-11.2262
▁ಗೊತ್ತಾ	-11.2265
▁कुशल	-11.2266
▁छाया	-11.2267
▁ತಿಳಿದುಕೊಳ್ಳ	-11.2268
▁की▁इच्छा	-11.2272
▁ಕೃತ್ಯ	-11.2273
▁रखी	-11.2273
▁held▁in	-11.2273
▁ಸಮಸ್ಯೆಗಳನ್ನು	-11.2273
▁dec	-11.2275
▁time▁for	-11.2276
28	-11.2278
▁ಚಿಂತೆ	-11.2278
▁ಘಟನೆಯ	-11.2278
लेख	-11.2278
▁मौका	-11.2279
▁runs▁in	-11.228
▁posted	-11.228
▁processes	-11.2283
▁ತಡೆಯ	-11.2284
▁तो▁वो	-11.2285
rah	-11.2288
▁6:	-11.2289
▁शहरी	-11.2289
▁and▁economic	-11.229
ದರಿಂದ	-11.229
▁arrangements	-11.229
▁बम	-11.2291
▁ವಿಭಾಗದಲ್ಲಿ	-11.2292
▁ಧೈರ್ಯ	-11.2292
▁practical	-11.2292
▁absolute	-11.2293
बाजी	-11.2293
▁custom	-11.2294
▁कहा▁जाता▁है▁कि	-11.2294
▁बाँध	-11.2295
▁peaceful	-11.2296
tom	-11.2298
▁पड़ी	-11.2298
▁Check	-11.2299
▁question▁of	-11.2299
चल	-11.23
▁ವಿಷಯಗಳನ್ನು	-11.23
▁कप्तान	-11.2301
▁ಮಸೂದೆ	-11.2301
▁उत्तरदायित्व	-11.2302
▁creative	-11.2302
▁cop	-11.2302
▁sanskrit	-11.2302
▁याचिका	-11.2302
▁ಮೈಸೂರು	-11.2302
ಾಟ್	-11.2302
▁ಸಸ್ಯ	-11.2302
▁ದುರಂತ	-11.2302
▁plastic	-11.2303
▁अंडमान	-11.2303
▁switch	-11.2303
▁ತೆ	-11.2306
▁ಇಳಿಕೆ	-11.2306
▁supporting	-11.2306
▁Ben	-11.2306
▁प्रभावशाली	-11.2306
▁रीति	-11.2307
▁supreme	-11.2307
▁मूलभूत	-11.2307
▁समाजवाद	-11.2309
▁जीवन▁की	-11.2309
▁कपड़े	-11.2309
▁ಗಾಯಗೊಂಡಿದ್ದಾರೆ	-11.231
▁mutual	-11.2311
ಗಳೇನು	-11.2312
▁ವಿದೇಶಿ	-11.2312
▁ಒಳಗೊಂಡಿದೆ	-11.2314
▁लोगों▁में	-11.2314
▁BJP▁leader	-11.2316
▁दिल्ली▁में	-11.2317
▁actors	-11.232
ी▁एक	-11.232
▁उत्पाद	-11.2322
▁the▁day	-11.2322
ांश	-11.2322
SL	-11.2322
▁पोस्ट	-11.2323
▁मैनें	-11.2323
▁kid	-11.2323
▁का▁कारण	-11.2324
▁अनाज	-11.2324
.[	-11.2325
▁bike	-11.2326
▁ರಂಗ	-11.2328
▁Ved	-11.2328
chandra	-11.2329
▁स्क	-11.2329
ಡೋ	-11.233
▁core	-11.2331
▁कराने	-11.2332
▁acquired	-11.2332
▁बादशाह	-11.2334
▁beyond▁the	-11.2334
▁represents	-11.2334
▁ಕಾರ್ಯಕ್ರಮದ	-11.2335
▁ಬಾಲ	-11.2336
▁notes	-11.2336
ेदार	-11.2337
▁की▁संभावना	-11.2338
▁to▁save	-11.2339
▁ಕ್ರ	-11.2341
▁उपदेश	-11.2343
▁spreading	-11.2343
▁ಶುಭ	-11.2349
▁ಆಶ್ಚರ್ಯ	-11.2349
▁ಅಲ್ಲಿನ	-11.235
ते▁ही	-11.2351
▁ಅರ್ಹ	-11.2351
▁But▁it▁was	-11.2352
▁protests	-11.2354
▁welcomed	-11.2355
▁the▁ground	-11.2355
▁many▁people	-11.2356
ಸೂ	-11.2356
यान	-11.2361
▁ಗಾಯಗೊಂಡ	-11.2362
ement	-11.2362
▁decades	-11.2363
्रा	-11.2364
▁ऐसे▁ही	-11.2365
▁ಎದುರು	-11.2365
▁suspect	-11.2366
बोध	-11.2367
▁ಮೃತಪಟ್ಟ	-11.2368
ef	-11.2369
place	-11.237
▁see▁the	-11.2373
▁कोयले▁क	-11.2374
ಲಿಯಾ	-11.2375
anda	-11.2379
▁मोटर	-11.238
प्रदेश	-11.2382
▁वरन	-11.2382
▁जा▁रहे▁हैं	-11.2385
▁औपचारिक	-11.2387
ांक	-11.2388
▁Bas	-11.2389
▁Twitter	-11.239
stone	-11.239
▁मिलाकर	-11.2391
▁पारी	-11.2391
atta	-11.2394
ಯಿಂದಾಗಿ	-11.2396
▁ಆದರೆ▁ಅವರು	-11.2396
▁ಊರ	-11.2397
तंत्र	-11.2399
▁Babu	-11.24
▁तह	-11.24
ॊं	-11.24
रहित	-11.2401
mu	-11.2403
tation	-11.2404
▁ಹಳ್ಳಿ	-11.2404
▁monsoon	-11.2405
▁स्मारक	-11.2405
▁Maruti▁Suzuki	-11.2405
▁ಕ್ರೀಡೆ	-11.2405
▁precious	-11.2405
▁boost	-11.2405
▁somewhat	-11.2406
▁Sinha	-11.2406
▁ಆಫ್▁ಇಂಡಿಯಾ	-11.2406
▁1914	-11.2406
यम	-11.2407
▁पाण्डव	-11.2407
▁ಪುಡಿ	-11.2407
▁Sad	-11.2409
▁oldest	-11.2409
▁जानवरों	-11.2409
▁Mother	-11.2409
▁ಅಧ್ಯಕ್ಷತೆ▁ವಹಿಸ	-11.241
▁ಭಿನ್ನ	-11.241
▁ಯಶಸ್ಸು	-11.2413
▁श्रम	-11.2413
▁ರನ್▁ಗಳ	-11.2414
▁ಡೈ	-11.2416
▁ಕ್ಲಿಕ್▁ಮಾಡಿ	-11.2416
Giver	-11.2417
▁बन▁जाता▁है	-11.2417
▁67	-11.2417
▁witnesses	-11.2418
▁2.0	-11.2419
ಸ್ಟ	-11.2419
ians	-11.2419
▁retired	-11.242
▁mal	-11.2421
▁शुरू▁कर	-11.2422
▁स्वीकार▁कर	-11.2424
▁खाली	-11.2425
▁का▁उत्पादन	-11.2425
▁percentage	-11.2425
▁Buddhist	-11.2425
▁of▁all▁the	-11.2425
००	-11.2427
[...]
